<unk>	0
<s>	0
</s>	0
<pad>	0
<bos>	0
<eos>	0
<mask>	0
<INST>	0
</INST>	0
<SYS>	0
</SYS>	0
。\	-0
▁t	-1
▁"	-2
▁a	-3
in	-4
he	-5
te	-6
":	-7
re	-8
me	-9
on	-10
le	-11
ta	-12
▁the	-13
▁s	-14
20	-15
or	-16
er	-17
nd	-18
▁w	-19
▁c	-20
ou	-21
is	-22
▁{	-23
▁{"	-24
▁f	-25
ti	-26
ing	-27
xt	-28
an	-29
",	-30
▁p	-31
text	-32
meta	-33
▁o	-34
"}	-35
▁b	-36
ile	-37
es	-38
ar	-39
yp	-40
sk	-41
al	-42
it	-43
公司	-44
skyp	-45
skypile	-46
en	-47
▁to	-48
▁in	-49
▁and	-50
可以	-51
▁of	-52
▁d	-53
ed	-54
我们	-55
ha	-56
ro	-57
ic	-58
工作	-59
▁m	-60
企业	-61
.\	-62
10	-63
一个	-64
产品	-65
as	-66
发展	-67
进行	-68
tion	-69
中国	-70
技术	-71
服务	-72
ll	-73
使用	-74
▁S	-75
ra	-76
et	-77
201	-78
ve	-79
us	-80
▁l	-81
▁C	-82
▁re	-83
00	-84
▁e	-85
▁n	-86
am	-87
▁T	-88
管理	-89
生产	-90
▁A	-91
▁I	-92
id	-93
自己	-94
▁y	-95
om	-96
设备	-97
时间	-98
\"	-99
▁g	-100
通过	-101
系统	-102
需要	-103
设计	-104
ly	-105
ter	-106
ac	-107
市场	-108
ho	-109
提供	-110
▁is	-111
nt	-112
▁for	-113
ec	-114
▁M	-115
项目	-116
▁on	-117
at	-118
没有	-119
。",	-120
ay	-121
安全	-122
问题	-123
专业	-124
ig	-125
▁you	-126
国家	-127
▁P	-128
主要	-129
行业	-130
il	-131
ver	-132
19	-133
如果	-134
ol	-135
hat	-136
研究	-137
工程	-138
▁ha	-139
▁be	-140
ur	-141
生活	-142
▁B	-143
治疗	-144
就是	-145
同时	-146
ith	-147
环境	-148
具有	-149
以及	-150
ow	-151
好的	-152
ce	-153
建设	-154
;\	-155
▁th	-156
要求	-157
他们	-158
活动	-159
os	-160
ts	-161
质量	-162
影响	-163
12	-164
情况	-165
不同	-166
ir	-167
材料	-168
ad	-169
aj	-170
ation	-171
202	-172
ri	-173
200	-174
处理	-175
是一	-176
教育	-177
选择	-178
ama	-179
方面	-180
可能	-181
因为	-182
▁with	-183
信息	-184
重要	-185
人员	-186
中心	-187
un	-188
ot	-189
ate	-190
世界	-191
ajama	-192
ame	-193
el	-194
▁D	-195
大家	-196
患者	-197
相关	-198
什么	-199
很多	-200
▁(	-201
应用	-202
▁that	-203
red	-204
ge	-205
所以	-206
经济	-207
!\	-208
▁h	-209
非常	-210
的一	-211
客户	-212
这个	-213
白癜	-214
白癜风	-215
大学	-216
有限	-217
▁W	-218
▁H	-219
根据	-220
目前	-221
▁F	-222
能力	-223
▁R	-224
11	-225
社会	-226
作为	-227
国际	-228
大的	-229
对于	-230
成为	-231
ch	-232
”,	-233
中的	-234
30	-235
?\	-236
过程	-237
数据	-238
出现	-239
pp	-240
科技	-241
已经	-242
▁he	-243
▁pro	-244
采用	-245
提高	-246
▁L	-247
▁it	-248
ut	-249
标准	-250
15	-251
▁an	-252
能够	-253
:\	-254
合作	-255
也是	-256
产业	-257
这样	-258
方式	-259
投资	-260
部分	-261
的人	-262
im	-263
ill	-264
),	-265
品牌	-266
一定	-267
..	-268
有限公司	-269
文化	-270
创新	-271
这些	-272
了解	-273
▁we	-274
ul	-275
▁G	-276
第一	-277
ke	-278
功能	-279
集团	-280
od	-281
se	-282
表示	-283
其他	-284
▁as	-285
1.	-286
健康	-287
实现	-288
学生	-289
以上	-290
一些	-291
th	-292
因此	-293
控制	-294
建筑	-295
时候	-296
ers	-297
方法	-298
▁N	-299
开始	-300
res	-301
▁E	-302
▁con	-303
工业	-304
比赛	-305
包括	-306
用于	-307
ment	-308
our	-309
一般	-310
用户	-311
作用	-312
获得	-313
。”	-314
▁are	-315
但是	-316
平台	-317
比较	-318
ent	-319
ew	-320
结构	-321
学习	-322
其中	-323
ted	-324
医院	-325
学校	-326
if	-327
由于	-328
城市	-329
▁at	-330
需求	-331
▁v	-332
组织	-333
北京	-334
不断	-335
开发	-336
)\	-337
her	-338
人的	-339
发生	-340
内容	-341
自己的	-342
2.	-343
▁de	-344
现在	-345
st	-346
50	-347
单位	-348
ld	-349
各种	-350
都是	-351
18	-352
到了	-353
ome	-354
out	-355
▁The	-356
完成	-357
oc	-358
qu	-359
的是	-360
100	-361
科学	-362
全国	-363
制造	-364
领域	-365
igh	-366
提升	-367
ble	-368
注意	-369
ion	-370
价格	-371
ity	-372
▁com	-373
所有	-374
不是	-375
政府	-376
网站	-377
效果	-378
op	-379
▁or	-380
还是	-381
rom	-382
性能	-383
网络	-384
国内	-385
解决	-386
um	-387
基础	-388
ore	-389
资源	-390
智能	-391
16	-392
▁me	-393
不能	-394
自动	-395
这种	-396
▁O	-397
ess	-398
nT	-399
消费	-400
增加	-401
保护	-402
孩子	-403
产生	-404
有效	-405
更多	-406
为了	-407
美国	-408
地区	-409
希望	-410
不会	-411
那么	-412
而且	-413
电子	-414
3.	-415
发现	-416
▁st	-417
▁ex	-418
必须	-419
学院	-420
个人	-421
拥有	-422
set	-423
ct	-424
系列	-425
分析	-426
name	-427
加工	-428
安装	-429
一步	-430
介绍	-431
达到	-432
14	-433
利用	-434
年的	-435
机构	-436
业务	-437
开展	-438
机械	-439
汽车	-440
检测	-441
销售	-442
支持	-443
增长	-444
▁from	-445
人民	-446
操作	-447
如何	-448
部门	-449
▁J	-450
▁was	-451
导致	-452
经营	-453
来的	-454
帮助	-455
上的	-456
之后	-457
积极	-458
游戏	-459
方案	-460
Red	-461
代表	-462
▁by	-463
全球	-464
计划	-465
水平	-466
:“	-467
温度	-468
或者	-469
上海	-470
ud	-471
ard	-472
特别	-473
容易	-474
新的	-475
还有	-476
▁le	-477
造成	-478
一起	-479
"}}	-480
redp	-481
稳定	-482
RedP	-483
RedPajama	-484
redpajama	-485
的时候	-486
▁this	-487
▁al	-488
up	-489
ear	-490
直接	-491
不仅	-492
随着	-493
oo	-494
精神	-495
知道	-496
施工	-497
▁\"	-498
▁your	-499
会议	-500
综合	-501
and	-502
来说	-503
13	-504
25	-505
第二	-506
ia	-507
持续	-508
进入	-509
▁have	-510
参加	-511
%,	-512
过程中	-513
发布	-514
2021	-515
ust	-516
17	-517
传统	-518
之一	-519
▁us	-520
ub	-521
显示	-522
应该	-523
研发	-524
▁se	-525
1、	-526
保持	-527
ine	-528
est	-529
tic	-530
更加	-531
2、	-532
▁will	-533
食品	-534
任何	-535
rou	-536
▁can	-537
保证	-538
分钟	-539
基本	-540
形成	-541
疾病	-542
2020	-543
负责	-544
ure	-545
自然	-546
工艺	-547
24	-548
▁U	-549
现场	-550
运动	-551
知识	-552
2022	-553
ist	-554
我们的	-555
条件	-556
这一	-557
有关	-558
疫情	-559
结合	-560
空间	-561
之间	-562
超过	-563
规定	-564
范围	-565
团队	-566
了一	-567
艺术	-568
今年	-569
未来	-570
成功	-571
检查	-572
认为	-573
000	-574
uc	-575
培训	-576
球队	-577
经过	-578
我国	-579
进一步	-580
成本	-581
▁ho	-582
环保	-583
虽然	-584
0.	-585
优势	-586
RedPajamaC	-587
广泛	-588
减少	-589
目标	-590
亿元	-591
体的	-592
经验	-593
og	-594
压力	-595
表面	-596
▁sta	-597
存在	-598
及时	-599
▁wor	-600
员工	-601
重点	-602
这是	-603
皮肤	-604
实际	-605
朋友	-606
许多	-607
继续	-608
人们	-609
ry	-610
ag	-611
生物	-612
关于	-613
ort	-614
关系	-615
专家	-616
原因	-617
ide	-618
历史	-619
最后	-620
ip	-621
简单	-622
体系	-623
一直	-624
▁en	-625
空气	-626
交通	-627
价值	-628
责任	-629
取得	-630
职业	-631
以下	-632
nA	-633
避免	-634
2019	-635
申请	-636
政策	-637
参与	-638
不要	-639
旅游	-640
并且	-641
运行	-642
▁pl	-643
60	-644
降低	-645
地方	-646
制作	-647
▁sp	-648
教学	-649
▁has	-650
金属	-651
▁r	-652
模式	-653
3、	-654
表现	-655
ight	-656
全面	-657
,“	-658
成立	-659
ff	-660
快速	-661
▁K	-662
是否	-663
是一种	-664
丰富	-665
ak	-666
40	-667
交流	-668
▁wh	-669
ap	-670
人才	-671
满足	-672
4.	-673
ite	-674
▁j	-675
现代	-676
期间	-677
规划	-678
面积	-679
特点	-680
联网	-681
身体	-682
得到	-683
ind	-684
能源	-685
共同	-686
结果	-687
ies	-688
建立	-689
污染	-690
all	-691
性的	-692
——	-693
一次	-694
实施	-695
加强	-696
报告	-697
医疗	-698
只有	-699
方便	-700
▁ac	-701
gh	-702
赛季	-703
ook	-704
保障	-705
无法	-706
的发展	-707
日本	-708
)、	-709
一样	-710
不过	-711
▁ch	-712
ie	-713
交易	-714
变化	-715
受到	-716
▁all	-717
才能	-718
努力	-719
计算	-720
建议	-721
确保	-722
以来	-723
实验	-724
▁not	-725
▁V	-726
甚至	-727
▁In	-728
严重	-729
iv	-730
ber	-731
玻璃	-732
的大	-733
nThe	-734
关注	-735
关键	-736
咨询	-737
的高	-738
带来	-739
age	-740
ice	-741
ould	-742
▁k	-743
记者	-744
除了	-745
做好	-746
坚持	-747
正常	-748
出了	-749
▁comp	-750
两个	-751
”。	-752
▁2	-753
推动	-754
一种	-755
80	-756
领导	-757
体育	-758
art	-759
高的	-760
不同的	-761
状态	-762
第三	-763
one	-764
化学	-765
阶段	-766
ial	-767
效率	-768
小时	-769
从而	-770
按照	-771
今天	-772
作品	-773
软件	-774
因素	-775
ack	-776
充分	-777
ue	-778
促进	-779
长期	-780
ain	-781
然后	-782
牛皮	-783
先进	-784
ong	-785
ast	-786
怎么	-787
规模	-788
▁ad	-789
打造	-790
基金	-791
2018	-792
年来	-793
球员	-794
量的	-795
生态	-796
竞争	-797
数字	-798
包装	-799
ich	-800
分别	-801
时代	-802
万元	-803
体验	-804
是在	-805
4"}}	-806
品质	-807
核心	-808
其实	-809
起来	-810
▁-	-811
委员	-812
ime	-813
牛皮癣	-814
良好的	-815
越来	-816
媒体	-817
家庭	-818
调整	-819
正在	-820
越来越	-821
▁cl	-822
机会	-823
hen	-824
▁ab	-825
银行	-826
ass	-827
组成	-828
ost	-829
nI	-830
per	-831
消费者	-832
for	-833
维护	-834
有的	-835
金融	-836
.",	-837
执行	-838
老师	-839
办公	-840
手机	-841
针对	-842
注册	-843
的新	-844
看到	-845
ab	-846
ans	-847
一下	-848
设施	-849
联赛	-850
就会	-851
▁do	-852
▁ne	-853
测试	-854
em	-855
接受	-856
are	-857
速度	-858
联合	-859
区域	-860
23	-861
运输	-862
来自	-863
风险	-864
决定	-865
so	-866
视频	-867
les	-868
出的	-869
物质	-870
▁sa	-871
这里	-872
完全	-873
氧化	-874
发挥	-875
适合	-876
宣传	-877
培养	-878
ther	-879
电影	-880
厂家	-881
欢迎	-882
理念	-883
的情况	-884
iz	-885
ace	-886
喜欢	-887
5.	-888
你的	-889
优秀	-890
推进	-891
▁go	-892
不可	-893
位于	-894
tive	-895
也有	-896
考虑	-897
措施	-898
。”\	-899
卫生	-900
pl	-901
形式	-902
的产品	-903
符合	-904
协会	-905
课程	-906
to	-907
引起	-908
他的	-909
ally	-910
都有	-911
最终	-912
ric	-913
考试	-914
ant	-915
方向	-916
主题	-917
联系	-918
战略	-919
之前	-920
整体	-921
▁up	-922
正式	-923
ep	-924
左右	-925
ks	-926
资料	-927
十分	-928
28	-929
音乐	-930
优质	-931
ake	-932
运营	-933
的工作	-934
▁but	-935
明显	-936
教师	-937
细胞	-938
指导	-939
供应	-940
ign	-941
26	-942
商业	-943
症状	-944
的问题	-945
法律	-946
▁3	-947
程度	-948
▁su	-949
合理	-950
化的	-951
此外	-952
互联网	-953
整个	-954
的话	-955
ive	-956
und	-957
▁their	-958
具体	-959
行为	-960
属于	-961
资金	-962
强度	-963
ys	-964
4、	-965
ven	-966
tions	-967
cl	-968
▁im	-969
美元	-970
199	-971
另外	-972
是一个	-973
创造	-974
ous	-975
27	-976
程序	-977
nS	-978
故事	-979
文件	-980
完善	-981
ated	-982
▁Y	-983
重要的	-984
绿色	-985
2017	-986
装置	-987
21	-988
本次	-989
此次	-990
特色	-991
机的	-992
位置	-993
▁our	-994
成绩	-995
哪些	-996
普通	-997
▁more	-998
反应	-999
▁res	-1000
事业	-1001
连接	-1002
产品的	-1003
规范	-1004
目的	-1005
准备	-1006
儿童	-1007
▁sc	-1008
农业	-1009
都会	-1010
物流	-1011
▁un	-1012
我的	-1013
ire	-1014
ect	-1015
very	-1016
▁new	-1017
毕业	-1018
严格	-1019
able	-1020
塑料	-1021
多种	-1022
酒店	-1023
22	-1024
自身	-1025
尤其	-1026
mm	-1027
tal	-1028
香港	-1029
erv	-1030
广州	-1031
的重要	-1032
ne	-1033
av	-1034
举办	-1035
本文	-1036
▁out	-1037
”、	-1038
也会	-1039
▁so	-1040
购买	-1041
机器	-1042
ach	-1043
日常	-1044
费用	-1045
分为	-1046
试验	-1047
6.	-1048
经常	-1049
移动	-1050
心理	-1051
通常	-1052
确定	-1053
首先	-1054
基地	-1055
山东	-1056
年度	-1057
来看	-1058
动力	-1059
下降	-1060
ase	-1061
生命	-1062
电视	-1063
ord	-1064
食物	-1065
》,	-1066
500	-1067
个月	-1068
社区	-1069
举行	-1070
落实	-1071
加入	-1072
后的	-1073
”。\	-1074
▁one	-1075
深圳	-1076
连续	-1077
一定要	-1078
多的	-1079
特殊	-1080
不少	-1081
改变	-1082
▁app	-1083
ike	-1084
▁off	-1085
任务	-1086
ark	-1087
com	-1088
收入	-1089
化工	-1090
ond	-1091
vel	-1092
发展的	-1093
保险	-1094
70	-1095
lic	-1096
认证	-1097
大型	-1098
电话	-1099
经理	-1100
ob	-1101
不得	-1102
接触	-1103
在线	-1104
相对	-1105
90	-1106
ten	-1107
▁his	-1108
新闻	-1109
▁year	-1110
它的	-1111
电池	-1112
▁man	-1113
广告	-1114
增强	-1115
出口	-1116
ree	-1117
▁some	-1118
全部	-1119
▁which	-1120
比如	-1121
广大	-1122
冠军	-1123
感觉	-1124
只要	-1125
▁time	-1126
行动	-1127
成果	-1128
主任	-1129
ien	-1130
面对	-1131
ance	-1132
的事	-1133
测量	-1134
展示	-1135
进行了	-1136
ary	-1137
排名	-1138
用的	-1139
寿命	-1140
页第	-1141
创业	-1142
类型	-1143
有机	-1144
具备	-1145
每个	-1146
▁qu	-1147
也不	-1148
▁they	-1149
2016	-1150
内的	-1151
改革	-1152
▁who	-1153
力量	-1154
从事	-1155
ss	-1156
当地	-1157
多个	-1158
污水	-1159
▁te	-1160
--	-1161
分享	-1162
书记	-1163
29	-1164
安排	-1165
his	-1166
同比	-1167
不锈	-1168
▁per	-1169
营养	-1170
并不	-1171
内部	-1172
医生	-1173
有些	-1174
防止	-1175
只是	-1176
▁about	-1177
实力	-1178
▁also	-1179
不锈钢	-1180
可靠	-1181
想要	-1182
工具	-1183
深入	-1184
▁work	-1185
调查	-1186
)。	-1187
改善	-1188
同学	-1189
保温	-1190
过去	-1191
科研	-1192
中央	-1193
ov	-1194
委员会	-1195
通知	-1196
这样的	-1197
指出	-1198
ting	-1199
公共	-1200
制度	-1201
腐蚀	-1202
股份	-1203
相信	-1204
一定的	-1205
结束	-1206
营销	-1207
也可以	-1208
nW	-1209
vers	-1210
药物	-1211
1-	-1212
推广	-1213
商品	-1214
现象	-1215
,\	-1216
▁Ch	-1217
ild	-1218
▁ar	-1219
智慧	-1220
当然	-1221
消息	-1222
成长	-1223
各类	-1224
开放	-1225
升级	-1226
%。	-1227
清洗	-1228
ove	-1229
nC	-1230
节能	-1231
实践	-1232
)。\	-1233
管道	-1234
设置	-1235
下面	-1236
高速	-1237
的小	-1238
ng	-1239
提出	-1240
气体	-1241
▁19	-1242
广东	-1243
led	-1244
常见	-1245
ang	-1246
觉得	-1247
ms	-1248
资格	-1249
电机	-1250
意识	-1251
摘要	-1252
最大	-1253
平方	-1254
报名	-1255
ors	-1256
恢复	-1257
ress	-1258
无论	-1259
仪器	-1260
2015	-1261
ays	-1262
领先	-1263
双方	-1264
ations	-1265
明确	-1266
电动	-1267
意义	-1268
ck	-1269
例如	-1270
ni	-1271
足球	-1272
样的	-1273
▁=	-1274
真正	-1275
end	-1276
▁sh	-1277
资产	-1278
7.	-1279
教授	-1280
技能	-1281
合同	-1282
适用于	-1283
▁dis	-1284
公司的	-1285
贡献	-1286
为主	-1287
每天	-1288
高温	-1289
说明	-1290
力的	-1291
场比赛	-1292
下来	-1293
own	-1294
高度	-1295
ount	-1296
距离	-1297
行政	-1298
。“	-1299
高效	-1300
35	-1301
欧洲	-1302
ere	-1303
免费	-1304
企业的	-1305
▁4	-1306
室内	-1307
专业的	-1308
集中	-1309
正确	-1310
form	-1311
加热	-1312
\\	-1313
装饰	-1314
vi	-1315
您的	-1316
循环	-1317
意见	-1318
”、“	-1319
白斑	-1320
植物	-1321
ory	-1322
饮食	-1323
▁tra	-1324
mon	-1325
白癜风的	-1326
训练	-1327
。(	-1328
垃圾	-1329
困难	-1330
重视	-1331
报道	-1332
▁get	-1333
优化	-1334
ail	-1335
上市	-1336
▁my	-1337
防控	-1338
车辆	-1339
大多	-1340
知名	-1341
维修	-1342
cess	-1343
再次	-1344
纤维	-1345
配合	-1346
感染	-1347
如此	-1348
做到	-1349
5、	-1350
消防	-1351
病情	-1352
银屑	-1353
有一	-1354
电力	-1355
干燥	-1356
▁1	-1357
过滤	-1358
劳动	-1359
清洁	-1360
银屑病	-1361
di	-1362
▁been	-1363
▁ro	-1364
青年	-1365
...	-1366
道路	-1367
性和	-1368
投入	-1369
▁ra	-1370
颜色	-1371
公里	-1372
风格	-1373
复杂	-1374
解决方案	-1375
相当	-1376
就业	-1377
下的	-1378
就可以	-1379
we	-1380
它们	-1381
群众	-1382
出来	-1383
有所	-1384
公开	-1385
可能会	-1386
▁other	-1387
最佳	-1388
董事	-1389
去年	-1390
大量	-1391
将在	-1392
本文摘要	-1393
中华	-1394
有着	-1395
年轻	-1396
重大	-1397
启动	-1398
的时间	-1399
运用	-1400
tern	-1401
等等	-1402
相比	-1403
合金	-1404
他们的	-1405
公布	-1406
详细	-1407
办法	-1408
吸引	-1409
ru	-1410
英国	-1411
数量	-1412
必要	-1413
nP	-1414
挑战	-1415
医学	-1416
展开	-1417
逐渐	-1418
▁over	-1419
机制	-1420
统计	-1421
理论	-1422
▁no	-1423
oin	-1424
por	-1425
预计	-1426
状况	-1427
▁like	-1428
预防	-1429
▁$	-1430
▁its	-1431
负责人	-1432
成都	-1433
面的	-1434
度的	-1435
▁sho	-1436
8.	-1437
近日	-1438
!",	-1439
ings	-1440
浙江	-1441
自由	-1442
ish	-1443
分子	-1444
ick	-1445
东西	-1446
器的	-1447
一体	-1448
最高	-1449
处于	-1450
证明	-1451
然而	-1452
加盟	-1453
nB	-1454
设备的	-1455
ater	-1456
▁'	-1457
irst	-1458
▁ag	-1459
风机	-1460
**	-1461
wn	-1462
女性	-1463
文章	-1464
致力	-1465
oy	-1466
理解	-1467
tes	-1468
决赛	-1469
的服务	-1470
作业	-1471
reat	-1472
先生	-1473
采取	-1474
....	-1475
▁5	-1476
的影响	-1477
流程	-1478
统一	-1479
融合	-1480
如今	-1481
不到	-1482
实验室	-1483
▁any	-1484
ound	-1485
玩家	-1486
监督	-1487
▁ins	-1488
ties	-1489
称为	-1490
重庆	-1491
tain	-1492
nM	-1493
推荐	-1494
记录	-1495
▁We	-1496
原则	-1497
▁St	-1498
即可	-1499
成员	-1500
太阳	-1501
固定	-1502
监测	-1503
各项	-1504
人类	-1505
趋势	-1506
▁des	-1507
官方	-1508
德国	-1509
ian	-1510
值得	-1511
平均	-1512
商务	-1513
多少	-1514
▁fe	-1515
mer	-1516
语言	-1517
大利	-1518
制定	-1519
形象	-1520
州市	-1521
下午	-1522
更好	-1523
推出	-1524
迅速	-1525
生活中	-1526
ib	-1527
江苏	-1528
准确	-1529
的方式	-1530
%。\	-1531
▁if	-1532
涉及	-1533
gra	-1534
ata	-1535
之间的	-1536
更多的	-1537
urn	-1538
顺利	-1539
认识	-1540
最近	-1541
制品	-1542
病毒	-1543
思想	-1544
duc	-1545
应用于	-1546
各地	-1547
300	-1548
oll	-1549
ps	-1550
是什么	-1551
IS	-1552
2014	-1553
45	-1554
wo	-1555
适应	-1556
电脑	-1557
密封	-1558
元素	-1559
方面的	-1560
9.	-1561
▁pe	-1562
进口	-1563
一年	-1564
线上	-1565
乐部	-1566
天然	-1567
为什么	-1568
重新	-1569
协议	-1570
ction	-1571
肯定	-1572
沟通	-1573
四川	-1574
▁–	-1575
另一	-1576
认真	-1577
俱乐部	-1578
覆盖	-1579
工作的	-1580
▁when	-1581
的一种	-1582
找到	-1583
▁rec	-1584
加快	-1585
习惯	-1586
强的	-1587
31	-1588
家长	-1589
采购	-1590
活性	-1591
LE	-1592
人体	-1593
clud	-1594
月份	-1595
);\	-1596
办理	-1597
观众	-1598
-0	-1599
临床	-1600
人工	-1601
ink	-1602
台湾	-1603
人士	-1604
▁kn	-1605
独特	-1606
▁pre	-1607
大会	-1608
突破	-1609
ple	-1610
nc	-1611
武汉	-1612
始终	-1613
信号	-1614
hed	-1615
以后	-1616
证书	-1617
流量	-1618
输送	-1619
2000	-1620
▁said	-1621
经历	-1622
更新	-1623
fter	-1624
最新	-1625
▁的	-1626
公路	-1627
▁need	-1628
居民	-1629
丰富的	-1630
调节	-1631
仍然	-1632
混合	-1633
▁her	-1634
每一	-1635
当时	-1636
原料	-1637
更好的	-1638
掌握	-1639
会有	-1640
净化	-1641
专利	-1642
的企业	-1643
扩大	-1644
刺激	-1645
队伍	-1646
贸易	-1647
期的	-1648
rough	-1649
相应	-1650
平方米	-1651
最大的	-1652
ons	-1653
新型	-1654
小组	-1655
anc	-1656
▁It	-1657
良好	-1658
评价	-1659
职工	-1660
召开	-1661
党委	-1662
三个	-1663
河南	-1664
身份	-1665
医药	-1666
电源	-1667
工厂	-1668
成分	-1669
”\	-1670
监管	-1671
场所	-1672
农村	-1673
▁were	-1674
ty	-1675
不足	-1676
每年	-1677
代理	-1678
感谢	-1679
here	-1680
吸收	-1681
展现	-1682
葡萄	-1683
之外	-1684
告诉	-1685
伙伴	-1686
患者的	-1687
航空	-1688
来源	-1689
ange	-1690
的主要	-1691
▁there	-1692
部件	-1693
文明	-1694
党员	-1695
nce	-1696
涂料	-1697
▁am	-1698
本身	-1699
强化	-1700
亚洲	-1701
的作用	-1702
ical	-1703
中小	-1704
高质量	-1705
只能	-1706
让人	-1707
▁than	-1708
享受	-1709
地产	-1710
致力于	-1711
世界杯	-1712
优点	-1713
更是	-1714
一点	-1715
节目	-1716
生长	-1717
ning	-1718
真的	-1719
tem	-1720
蛋白	-1721
是由	-1722
这次	-1723
提供了	-1724
博士	-1725
ull	-1726
ft	-1727
ens	-1728
ments	-1729
▁cont	-1730
石油	-1731
铁路	-1732
相同	-1733
自主	-1734
ual	-1735
呈现	-1736
nH	-1737
尺寸	-1738
及其	-1739
动物	-1740
全体	-1741
令人	-1742
的技术	-1743
添加	-1744
36	-1745
1000	-1746
自动化	-1747
基于	-1748
装修	-1749
......	-1750
有了	-1751
橡胶	-1752
理想	-1753
危害	-1754
day	-1755
use	-1756
追求	-1757
治理	-1758
含有	-1759
众多	-1760
▁,	-1761
▁tr	-1762
主动	-1763
护理	-1764
近年来	-1765
往往	-1766
将会	-1767
者的	-1768
▁would	-1769
round	-1770
▁Re	-1771
完整	-1772
如下	-1773
限制	-1774
当前	-1775
机关	-1776
还要	-1777
免疫	-1778
定制	-1779
阅读	-1780
政治	-1781
nF	-1782
而言	-1783
资本	-1784
ople	-1785
的地方	-1786
▁into	-1787
小编	-1788
传播	-1789
大大	-1790
公园	-1791
配置	-1792
尤其是	-1793
发病	-1794
很多人	-1795
学术	-1796
pe	-1797
支付	-1798
学科	-1799
指标	-1800
复合	-1801
行业的	-1802
比例	-1803
▁first	-1804
▁He	-1805
很大	-1806
参考	-1807
的同时	-1808
评估	-1809
传感	-1810
系统的	-1811
▁&	-1812
两种	-1813
幸福	-1814
那些	-1815
配套	-1816
含量	-1817
岗位	-1818
组合	-1819
少年	-1820
冷却	-1821
hn	-1822
离子	-1823
示范	-1824
回收	-1825
lo	-1826
世纪	-1827
iss	-1828
变得	-1829
不错	-1830
防护	-1831
生的	-1832
家具	-1833
高校	-1834
体现	-1835
即使	-1836
的治疗	-1837
加上	-1838
环节	-1839
ough	-1840
nD	-1841
还可以	-1842
各个	-1843
ler	-1844
▁Sta	-1845
充满	-1846
韩国	-1847
包含	-1848
分离	-1849
的好	-1850
▁what	-1851
计算机	-1852
干部	-1853
会上	-1854
▁6	-1855
▁includ	-1856
ational	-1857
》(	-1858
io	-1859
独立	-1860
▁op	-1861
▁prov	-1862
▁und	-1863
raw	-1864
的水	-1865
▁hel	-1866
民族	-1867
地址	-1868
PP	-1869
的热	-1870
真实	-1871
手术	-1872
微信	-1873
排放	-1874
2013	-1875
▁serv	-1876
ters	-1877
装备	-1878
证券	-1879
的使用	-1880
大部分	-1881
特别是	-1882
创作	-1883
激光	-1884
ph	-1885
利润	-1886
使得	-1887
上升	-1888
▁had	-1889
学会	-1890
多年	-1891
定位	-1892
期待	-1893
的情况下	-1894
情绪	-1895
2010	-1896
利于	-1897
焊接	-1898
探索	-1899
疫情防控	-1900
观察	-1901
而是	-1902
一家	-1903
教练	-1904
同样	-1905
空调	-1906
的要求	-1907
的方法	-1908
几乎	-1909
第四	-1910
直播	-1911
上午	-1912
总经理	-1913
ily	-1914
兴趣	-1915
合格	-1916
角度	-1917
办公室	-1918
承担	-1919
强调	-1920
宣布	-1921
这么	-1922
轴承	-1923
进步	-1924
》、	-1925
天津	-1926
有哪些	-1927
▁just	-1928
一切	-1929
主要是	-1930
发表	-1931
的基础	-1932
ult	-1933
登记	-1934
表达	-1935
土地	-1936
▁10	-1937
de	-1938
首次	-1939
特性	-1940
简称	-1941
▁bec	-1942
事件	-1943
色的	-1944
ock	-1945
au	-1946
支撑	-1947
英语	-1948
成了	-1949
改造	-1950
材质	-1951
几个	-1952
ring	-1953
公告	-1954
原理	-1955
▁them	-1956
上述	-1957
将于	-1958
网上	-1959
:00	-1960
▁Pro	-1961
可以在	-1962
BA	-1963
事故	-1964
fere	-1965
精度	-1966
印刷	-1967
▁\	-1968
品种	-1969
▁co	-1970
新技术	-1971
85	-1972
ise	-1973
满意	-1974
act	-1975
危险	-1976
冲击	-1977
1)	-1978
75	-1979
天气	-1980
2)	-1981
主持	-1982
认可	-1983
创建	-1984
使用的	-1985
很大的	-1986
大多数	-1987
遇到	-1988
规格	-1989
考生	-1990
▁在	-1991
故障	-1992
有很多	-1993
成的	-1994
检验	-1995
父母	-1996
有人	-1997
高级	-1998
共享	-1999
的生活	-2000
生素	-2001
法国	-2002
▁col	-2003
时期	-2004
面临	-2005
很好的	-2006
资讯	-2007
标志	-2008
压缩	-2009
机场	-2010
校园	-2011
均匀	-2012
▁use	-2013
给予	-2014
▁people	-2015
驾驶	-2016
▁par	-2017
2012	-2018
曾经	-2019
等方面	-2020
部位	-2021
▁comm	-2022
其它	-2023
功率	-2024
放在	-2025
心的	-2026
如果你	-2027
当中	-2028
是一家	-2029
▁cons	-2030
物理	-2031
监控	-2032
感受	-2033
ale	-2034
ade	-2035
man	-2036
对手	-2037
神经	-2038
▁bu	-2039
背景	-2040
颗粒	-2041
提前	-2042
ful	-2043
市场的	-2044
为您	-2045
依据	-2046
混凝	-2047
最好	-2048
透过	-2049
讨论	-2050
河北	-2051
ath	-2052
▁Sc	-2053
构建	-2054
▁pos	-2055
物料	-2056
min	-2057
▁Com	-2058
要注意	-2059
高压	-2060
展览	-2061
总结	-2062
是指	-2063
打开	-2064
▁200	-2065
”“	-2066
物的	-2067
情况下	-2068
著名	-2069
▁through	-2070
做出	-2071
树脂	-2072
指数	-2073
的设计	-2074
>\	-2075
协助	-2076
通信	-2077
▁This	-2078
引导	-2079
尽量	-2080
先后	-2081
▁make	-2082
选用	-2083
时的	-2084
aw	-2085
主义	-2086
黑色	-2087
赛事	-2088
罗斯	-2089
row	-2090
转型	-2091
本科	-2092
新冠	-2093
尽管	-2094
就能	-2095
随后	-2096
ents	-2097
年龄	-2098
会员	-2099
句话	-2100
小的	-2101
get	-2102
▁help	-2103
定期	-2104
清楚	-2105
里的	-2106
渠道	-2107
ife	-2108
围绕	-2109
事项	-2110
▁how	-2111
外观	-2112
近期	-2113
▁two	-2114
营业	-2115
至今	-2116
娱乐	-2117
作者	-2118
ward	-2119
ork	-2120
仪式	-2121
角色	-2122
商标	-2123
志愿	-2124
应当	-2125
伤害	-2126
让我们	-2127
▁look	-2128
布局	-2129
季度	-2130
国内外	-2131
损失	-2132
半年	-2133
真空	-2134
驱动	-2135
99	-2136
舒适	-2137
ax	-2138
美丽	-2139
财务	-2140
图片	-2141
更换	-2142
提醒	-2143
素质	-2144
创意	-2145
进球	-2146
.\"	-2147
成熟	-2148
出版	-2149
▁em	-2150
精彩	-2151
▁star	-2152
亿美元	-2153
种植	-2154
的心	-2155
废水	-2156
自我	-2157
合适	-2158
▁sec	-2159
传感器	-2160
电缆	-2161
经典	-2162
400	-2163
▁supp	-2164
▁New	-2165
累计	-2166
鼓励	-2167
现实	-2168
上涨	-2169
▁most	-2170
li	-2171
邀请	-2172
38	-2173
The	-2174
诚信	-2175
唯一	-2176
日前	-2177
轻松	-2178
保养	-2179
的需求	-2180
截至	-2181
,\"	-2182
阳光	-2183
平衡	-2184
▁only	-2185
ER	-2186
▁ind	-2187
分布	-2188
主场	-2189
了一个	-2190
下载	-2191
ublic	-2192
▁she	-2193
万吨	-2194
中超	-2195
的一个	-2196
网友	-2197
园区	-2198
快乐	-2199
名单	-2200
分类	-2201
适当	-2202
rac	-2203
都在	-2204
▁part	-2205
湖南	-2206
公众	-2207
部署	-2208
6、	-2209
,《	-2210
工作人员	-2211
根本	-2212
输出	-2213
32	-2214
日起	-2215
▁0	-2216
突出	-2217
协调	-2218
一旦	-2219
拍摄	-2220
的生产	-2221
pec	-2222
iness	-2223
效益	-2224
并在	-2225
的原因	-2226
%;	-2227
专门	-2228
ron	-2229
确认	-2230
电器	-2231
美的	-2232
port	-2233
PS	-2234
担任	-2235
混凝土	-2236
售后	-2237
你们	-2238
表明	-2239
自行	-2240
▁years	-2241
any	-2242
nR	-2243
顾客	-2244
▁after	-2245
董事长	-2246
ood	-2247
感到	-2248
多次	-2249
▁bet	-2250
联盟	-2251
院校	-2252
ita	-2253
在这	-2254
不良	-2255
维生素	-2256
互动	-2257
引发	-2258
old	-2259
为客户	-2260
事情	-2261
补充	-2262
nN	-2263
oth	-2264
法院	-2265
在于	-2266
▁well	-2267
股份有限公司	-2268
应急	-2269
专注	-2270
nO	-2271
ues	-2272
ns	-2273
难以	-2274
als	-2275
防水	-2276
相互	-2277
南京	-2278
蔬菜	-2279
▁back	-2280
行的	-2281
▁know	-2282
老年	-2283
电气	-2284
队的	-2285
az	-2286
润滑	-2287
通风	-2288
ton	-2289
深度	-2290
来到	-2291
2011	-2292
▁see	-2293
优良	-2294
在中国	-2295
对象	-2296
▁stud	-2297
ose	-2298
ok	-2299
▁play	-2300
凭借	-2301
子的	-2302
是不	-2303
》、《	-2304
hip	-2305
游客	-2306
33	-2307
意味	-2308
电压	-2309
手段	-2310
低于	-2311
离开	-2312
场景	-2313
申报	-2314
ik	-2315
▁set	-2316
食用	-2317
▁every	-2318
▁7	-2319
nE	-2320
色彩	-2321
学历	-2322
定的	-2323
时尚	-2324
开启	-2325
高端	-2326
会在	-2327
olog	-2328
都能	-2329
十年	-2330
领域的	-2331
nL	-2332
都不	-2333
能量	-2334
IP	-2335
妈妈	-2336
ell	-2337
土壤	-2338
市民	-2339
ner	-2340
也就是	-2341
整合	-2342
事实	-2343
2-	-2344
时刻	-2345
ures	-2346
▁You	-2347
流动	-2348
收集	-2349
立即	-2350
65	-2351
房屋	-2352
land	-2353
IN	-2354
重量	-2355
周期	-2356
赢得	-2357
竞赛	-2358
▁reg	-2359
加大	-2360
投资者	-2361
照片	-2362
ash	-2363
动作	-2364
产权	-2365
人民币	-2366
在此	-2367
ves	-2368
逐步	-2369
较大	-2370
起到	-2371
视觉	-2372
对方	-2373
生产的	-2374
▁even	-2375
依然	-2376
有效的	-2377
velop	-2378
长时间	-2379
88	-2380
获取	-2381
乡村	-2382
主办	-2383
显著	-2384
贷款	-2385
▁“	-2386
钢管	-2387
幼儿	-2388
北京时间	-2389
信用	-2390
美观	-2391
很难	-2392
也能	-2393
}\	-2394
一场	-2395
天的	-2396
论坛	-2397
▁dec	-2398
uring	-2399
或是	-2400
rawl	-2401
设立	-2402
AR	-2403
演员	-2404
用途	-2405
的前	-2406
等级	-2407
可是	-2408
新能源	-2409
▁Uni	-2410
财政	-2411
▁Ar	-2412
▁may	-2413
通讯	-2414
34	-2415
一致	-2416
ommon	-2417
AS	-2418
usiness	-2419
水泥	-2420
餐饮	-2421
▁cre	-2422
搜索	-2423
注重	-2424
规则	-2425
液体	-2426
态度	-2427
岁的	-2428
PC	-2429
俄罗斯	-2430
AC	-2431
特征	-2432
密度	-2433
出席	-2434
回应	-2435
也在	-2436
国外	-2437
ience	-2438
技术的	-2439
等奖	-2440
ject	-2441
LED	-2442
常见的	-2443
红色	-2444
ased	-2445
▁exper	-2446
诊断	-2447
液压	-2448
至少	-2449
hes	-2450
ug	-2451
破坏	-2452
人口	-2453
人生	-2454
识别	-2455
防腐	-2456
优惠	-2457
▁/	-2458
▁fin	-2459
反映	-2460
大赛	-2461
景区	-2462
hool	-2463
app	-2464
同比增长	-2465
ix	-2466
Crawl	-2467
所在	-2468
参数	-2469
集成	-2470
ommonCrawl	-2471
37	-2472
血管	-2473
▁home	-2474
du	-2475
概念	-2476
使用寿命	-2477
正规	-2478
地位	-2479
成立于	-2480
维持	-2481
许可	-2482
▁loc	-2483
海外	-2484
每一个	-2485
引进	-2486
以前	-2487
还会	-2488
湖北	-2489
很好	-2490
最好的	-2491
意味着	-2492
pt	-2493
批准	-2494
搭配	-2495
随时	-2496
污水处理	-2497
人在	-2498
95	-2499
似乎	-2500
打印	-2501
平时	-2502
发动	-2503
不管	-2504
有一个	-2505
助力	-2506
▁bl	-2507
此前	-2508
电流	-2509
产量	-2510
论文	-2511
融资	-2512
上下	-2513
的专业	-2514
委会	-2515
ank	-2516
现有	-2517
ower	-2518
造型	-2519
发电	-2520
更为	-2521
招聘	-2522
▁8	-2523
大幅	-2524
转化	-2525
本赛季	-2526
参观	-2527
IC	-2528
全力	-2529
也可	-2530
带领	-2531
主体	-2532
ode	-2533
公益	-2534
房地产	-2535
人数	-2536
▁ke	-2537
股票	-2538
参赛	-2539
白癜风患者	-2540
前往	-2541
文字	-2542
大力	-2543
▁add	-2544
▁inte	-2545
变形	-2546
利益	-2547
动态	-2548
48	-2549
ID	-2550
青岛	-2551
种类	-2552
允许	-2553
▁spec	-2554
地下	-2555
信心	-2556
很容易	-2557
ices	-2558
我们在	-2559
声音	-2560
观看	-2561
ause	-2562
一段	-2563
ions	-2564
一体的	-2565
发行	-2566
学位	-2567
rin	-2568
ox	-2569
▁show	-2570
都可以	-2571
乙烯	-2572
专项	-2573
律师	-2574
▁i	-2575
我公司	-2576
安徽	-2577
车间	-2578
球迷	-2579
3-	-2580
elf	-2581
精准	-2582
实行	-2583
输入	-2584
ris	-2585
普遍	-2586
并不是	-2587
云南	-2588
法规	-2589
主席	-2590
有什么	-2591
构成	-2592
带来的	-2593
的事情	-2594
专用	-2595
细节	-2596
病例	-2597
rib	-2598
寻找	-2599
较为	-2600
不再	-2601
二十	-2602
收益	-2603
▁these	-2604
有可能	-2605
浓度	-2606
新增	-2607
ities	-2608
总是	-2609
gan	-2610
ating	-2611
研究生	-2612
大量的	-2613
一名	-2614
通道	-2615
差异	-2616
一流	-2617
损坏	-2618
ex	-2619
多元	-2620
alth	-2621
物品	-2622
IT	-2623
类似	-2624
ef	-2625
开关	-2626
到的	-2627
材料的	-2628
贯彻	-2629
得到了	-2630
▁dif	-2631
面向	-2632
加速	-2633
erson	-2634
资质	-2635
lect	-2636
提示	-2637
its	-2638
拓展	-2639
于是	-2640
消毒	-2641
供应商	-2642
百分	-2643
▁many	-2644
咖啡	-2645
不用	-2646
con	-2647
呼吸	-2648
bs	-2649
白色	-2650
tle	-2651
爱情	-2652
▁rel	-2653
ren	-2654
切割	-2655
▁where	-2656
工程师	-2657
研究院	-2658
合成	-2659
所需	-2660
▁Al	-2661
停止	-2662
iel	-2663
ular	-2664
地面	-2665
即将	-2666
高等	-2667
是非常	-2668
影片	-2669
思考	-2670
).	-2671
景观	-2672
地点	-2673
异常	-2674
授权	-2675
ins	-2676
招生	-2677
人力	-2678
一代	-2679
热水	-2680
就要	-2681
不知道	-2682
们的	-2683
▁Th	-2684
存储	-2685
周边	-2686
▁now	-2687
照明	-2688
产生的	-2689
意大利	-2690
大小	-2691
机器人	-2692
日至	-2693
55	-2694
OS	-2695
干净	-2696
介质	-2697
ener	-2698
在一起	-2699
废气	-2700
拒绝	-2701
thing	-2702
依法	-2703
较高	-2704
电商	-2705
版本	-2706
成就	-2707
查询	-2708
用来	-2709
生产线	-2710
否则	-2711
ative	-2712
周围	-2713
件的	-2714
pro	-2715
▁Le	-2716
line	-2717
障碍	-2718
电路	-2719
判断	-2720
辅助	-2721
占地	-2722
到底	-2723
黄金	-2724
地板	-2725
个性	-2726
院长	-2727
灵活	-2728
还能	-2729
几年	-2730
住宅	-2731
广西	-2732
▁年	-2733
3)	-2734
便利	-2735
熟悉	-2736
总部	-2737
vent	-2738
ows	-2739
相关的	-2740
项目的	-2741
用水	-2742
讲解	-2743
线路	-2744
多样	-2745
ible	-2746
▁way	-2747
之中	-2748
也要	-2749
梦想	-2750
引领	-2751
▁inc	-2752
荣誉	-2753
应对	-2754
会计	-2755
调研	-2756
确实	-2757
气候	-2758
AT	-2759
疫苗	-2760
全新	-2761
PE	-2762
足够	-2763
CO	-2764
别人	-2765
的环境	-2766
▁fam	-2767
名称	-2768
策略	-2769
▁{\	-2770
带着	-2771
GB	-2772
陕西	-2773
tif	-2774
▁very	-2775
附近	-2776
使命	-2777
aking	-2778
氛围	-2779
的不	-2780
上了	-2781
海洋	-2782
的中	-2783
转换	-2784
150	-2785
各位	-2786
防火	-2787
▁car	-2788
的安全	-2789
信息化	-2790
ility	-2791
为大家	-2792
接下来	-2793
方位	-2794
▁[	-2795
▁acc	-2796
▁high	-2797
最低	-2798
表演	-2799
dition	-2800
men	-2801
▁fl	-2802
▁Con	-2803
范围内	-2804
保健	-2805
零售	-2806
三年	-2807
大数据	-2808
里面	-2809
▁An	-2810
访问	-2811
西班	-2812
清晰	-2813
爱的	-2814
传统的	-2815
搅拌	-2816
:0	-2817
稳定性	-2818
西班牙	-2819
充电	-2820
客户的	-2821
获得了	-2822
发的	-2823
自治	-2824
毕业生	-2825
区别	-2826
精密	-2827
纪录	-2828
uch	-2829
支部	-2830
▁Mar	-2831
她的	-2832
全省	-2833
ek	-2834
药品	-2835
湿度	-2836
ates	-2837
早期	-2838
▁9	-2839
formation	-2840
胜利	-2841
所有的	-2842
业绩	-2843
透明	-2844
正是	-2845
病人	-2846
贵州	-2847
就像	-2848
解释	-2849
担心	-2850
休闲	-2851
▁then	-2852
西安	-2853
长的	-2854
提交	-2855
节省	-2856
日下午	-2857
广场	-2858
ES	-2859
总体	-2860
小区	-2861
选手	-2862
说过	-2863
青春	-2864
第五	-2865
看看	-2866
形状	-2867
39	-2868
吸附	-2869
第一次	-2870
股东	-2871
600	-2872
AN	-2873
实时	-2874
tant	-2875
延长	-2876
▁design	-2877
atch	-2878
年代	-2879
万人	-2880
缺乏	-2881
以上的	-2882
高达	-2883
▁own	-2884
并没有	-2885
后来	-2886
大众	-2887
配件	-2888
先进的	-2889
配备	-2890
投标	-2891
▁could	-2892
ied	-2893
切实	-2894
mb	-2895
适用	-2896
▁produc	-2897
图书	-2898
工商	-2899
审核	-2900
模块	-2901
耐磨	-2902
fore	-2903
中医	-2904
tt	-2905
变成	-2906
▁av	-2907
不好	-2908
▁sm	-2909
养老	-2910
的效果	-2911
传递	-2912
实用	-2913
▁min	-2914
ason	-2915
燃烧	-2916
一路	-2917
死亡	-2918
家的	-2919
晚上	-2920
在这里	-2921
▁ass	-2922
对外	-2923
陶瓷	-2924
整理	-2925
和国	-2926
低温	-2927
护栏	-2928
硕士	-2929
家人	-2930
模具	-2931
力度	-2932
改进	-2933
以免	-2934
绝对	-2935
gram	-2936
修复	-2937
家居	-2938
一是	-2939
科技有限公司	-2940
十二	-2941
ious	-2942
olu	-2943
▁should	-2944
▁pres	-2945
营造	-2946
宝宝	-2947
所谓	-2948
服装	-2949
▁good	-2950
苹果	-2951
日上午	-2952
则是	-2953
广泛应用于	-2954
旋转	-2955
街道	-2956
早已	-2957
nG	-2958
隔离	-2959
的质量	-2960
或许	-2961
意外	-2962
基因	-2963
riv	-2964
ati	-2965
深刻	-2966
半场	-2967
考察	-2968
成型	-2969
带动	-2970
模型	-2971
查看	-2972
产品质量	-2973
有利于	-2974
来了	-2975
小学	-2976
老人	-2977
取得了	-2978
中间	-2979
▁want	-2980
点击	-2981
荣获	-2982
功效	-2983
mp	-2984
co	-2985
回到	-2986
共有	-2987
以为	-2988
越南	-2989
传输	-2990
用品	-2991
美好	-2992
制造业	-2993
▁find	-2994
一位	-2995
节约	-2996
动画	-2997
▁requ	-2998
主管	-2999
竞争力	-3000
ital	-3001
福建	-3002
ouse	-3003
在使用	-3004
烈的	-3005
事务	-3006
摄影	-3007
1.5	-3008
▁<	-3009
错误	-3010
收费	-3011
编辑	-3012
代码	-3013
我校	-3014
▁end	-3015
同学们	-3016
基层	-3017
起重	-3018
▁develop	-3019
到达	-3020
▁fun	-3021
声明	-3022
曼联	-3023
▁world	-3024
研究所	-3025
四个	-3026
ition	-3027
▁For	-3028
可持续	-3029
公安	-3030
社交	-3031
交换	-3032
层次	-3033
UR	-3034
两人	-3035
突然	-3036
上面	-3037
失去	-3038
▁come	-3039
日在	-3040
森林	-3041
对此	-3042
某些	-3043
青少年	-3044
博物	-3045
培育	-3046
脂肪	-3047
▁es	-3048
ON	-3049
餐厅	-3050
可见	-3051
奥运	-3052
斯特	-3053
▁best	-3054
全市	-3055
散热	-3056
一天	-3057
而成	-3058
▁business	-3059
报警	-3060
终于	-3061
他在	-3062
形势	-3063
而在	-3064
提高了	-3065
官网	-3066
2008	-3067
印度	-3068
停车	-3069
住房	-3070
eb	-3071
货币	-3072
一系列	-3073
货物	-3074
文学	-3075
杭州	-3076
宗旨	-3077
康复	-3078
优先	-3079
仪表	-3080
实现了	-3081
设有	-3082
机床	-3083
是中国	-3084
有害	-3085
建成	-3086
大约	-3087
水的	-3088
▁mon	-3089
工资	-3090
▁12	-3091
思维	-3092
水果	-3093
接近	-3094
ces	-3095
不需要	-3096
区的	-3097
安全生产	-3098
很快	-3099
arket	-3100
和服务	-3101
案例	-3102
预测	-3103
知识产权	-3104
期望	-3105
的内容	-3106
▁And	-3107
有助	-3108
人物	-3109
民众	-3110
母亲	-3111
翻译	-3112
愿意	-3113
▁Cl	-3114
国务	-3115
alle	-3116
导演	-3117
也将	-3118
纪念	-3119
的选择	-3120
无线	-3121
考核	-3122
型号	-3123
英超	-3124
view	-3125
辐射	-3126
这也是	-3127
》《	-3128
粉丝	-3129
养殖	-3130
▁ser	-3131
纷纷	-3132
▁don	-3133
高于	-3134
省级	-3135
2,	-3136
体积	-3137
确诊	-3138
lease	-3139
医师	-3140
扩散	-3141
国足	-3142
记忆	-3143
想到	-3144
▁18	-3145
ence	-3146
比赛中	-3147
减速	-3148
66	-3149
紧张	-3150
▁here	-3151
水分	-3152
给大家	-3153
肺炎	-3154
芯片	-3155
▁Z	-3156
租赁	-3157
ines	-3158
▁sub	-3159
无人	-3160
高中	-3161
强大的	-3162
二是	-3163
无论是	-3164
对阵	-3165
49	-3166
校长	-3167
承诺	-3168
客场	-3169
▁vis	-3170
加重	-3171
厚度	-3172
独特的	-3173
作出	-3174
▁Pl	-3175
versity	-3176
的价格	-3177
管理体系	-3178
响应	-3179
描述	-3180
这个问题	-3181
amp	-3182
招标	-3183
完美	-3184
较低	-3185
关心	-3186
绝缘	-3187
▁game	-3188
ystem	-3189
感情	-3190
会的	-3191
way	-3192
urre	-3193
舞台	-3194
▁gu	-3195
▁down	-3196
智能化	-3197
)",	-3198
sta	-3199
出来的	-3200
制冷	-3201
irect	-3202
▁team	-3203
利亚	-3204
父亲	-3205
关节	-3206
旅行	-3207
违法	-3208
▁eff	-3209
户外	-3210
两年	-3211
出生	-3212
居住	-3213
无需	-3214
犯罪	-3215
锅炉	-3216
▁day	-3217
unity	-3218
的一些	-3219
▁rem	-3220
金额	-3221
▁exp	-3222
▁gra	-3223
意思	-3224
roup	-3225
物业	-3226
多家	-3227
都要	-3228
反复	-3229
永远	-3230
学员	-3231
▁che	-3232
数控	-3233
ific	-3234
other	-3235
超级	-3236
__	-3237
▁long	-3238
肿瘤	-3239
▁made	-3240
合物	-3241
同步	-3242
▁sha	-3243
每个人	-3244
生存	-3245
国务院	-3246
▁bel	-3247
市场上	-3248
才是	-3249
rit	-3250
的能力	-3251
休息	-3252
出现了	-3253
癫痫	-3254
▁name	-3255
cc	-3256
浏览	-3257
大气	-3258
1,	-3259
ISO	-3260
传承	-3261
名字	-3262
江西	-3263
sc	-3264
冬季	-3265
=\"	-3266
美术	-3267
消除	-3268
一线	-3269
温暖	-3270
不易	-3271
星期	-3272
turn	-3273
tation	-3274
难度	-3275
血液	-3276
内外	-3277
▁class	-3278
缓解	-3279
der	-3280
86	-3281
的关键	-3282
▁take	-3283
▁such	-3284
释放	-3285
简单的	-3286
▁mod	-3287
案件	-3288
ollow	-3289
2009	-3290
东方	-3291
采访	-3292
7、	-3293
▁data	-3294
数字化	-3295
中学	-3296
同志	-3297
nIn	-3298
其次	-3299
密切	-3300
旗下	-3301
大于	-3302
今日	-3303
教育部	-3304
hose	-3305
和谐	-3306
和其他	-3307
本地	-3308
这款	-3309
▁lead	-3310
小型	-3311
场地	-3312
温馨	-3313
可以说	-3314
meric	-3315
一份	-3316
一体化	-3317
AM	-3318
毕竟	-3319
门窗	-3320
的主	-3321
ize	-3322
预期	-3323
钢铁	-3324
前的	-3325
烘干	-3326
鉴定	-3327
▁trans	-3328
建造	-3329
ina	-3330
▁last	-3331
rid	-3332
售后服务	-3333
收到	-3334
的相关	-3335
消化	-3336
▁under	-3337
的应用	-3338
46	-3339
博物馆	-3340
我们将	-3341
▁Ad	-3342
美食	-3343
防疫	-3344
前景	-3345
sp	-3346
新区	-3347
中文	-3348
不但	-3349
铝合金	-3350
据悉	-3351
▁read	-3352
每次	-3353
▁again	-3354
▁char	-3355
防治	-3356
三大	-3357
▁del	-3358
哪里	-3359
.\"\	-3360
购物	-3361
是有	-3362
将其	-3363
钢板	-3364
容量	-3365
画面	-3366
▁def	-3367
在这个	-3368
na	-3369
▁sur	-3370
地球	-3371
钢结构	-3372
也很	-3373
不一样	-3374
read	-3375
明星	-3376
开拓	-3377
隐患	-3378
讲述	-3379
iew	-3380
的外	-3381
指挥	-3382
热情	-3383
下了	-3384
76	-3385
巴西	-3386
零件	-3387
慢慢	-3388
传动	-3389
ince	-3390
US	-3391
这位	-3392
孩子的	-3393
容器	-3394
携手	-3395
有时	-3396
▁Q	-3397
怎样	-3398
性质	-3399
秉承	-3400
尝试	-3401
相应的	-3402
专科	-3403
▁De	-3404
多项	-3405
世界上	-3406
人群	-3407
保存	-3408
至于	-3409
▁ed	-3410
师生	-3411
去除	-3412
印象	-3413
▁differe	-3414
它是	-3415
审查	-3416
饮料	-3417
消耗	-3418
让你	-3419
频率	-3420
模拟	-3421
人为	-3422
积累	-3423
理事	-3424
的过程中	-3425
三分	-3426
演出	-3427
echn	-3428
弹性	-3429
厨房	-3430
纺织	-3431
排水	-3432
多年的	-3433
▁X	-3434
紫外	-3435
剧情	-3436
001	-3437
产业链	-3438
细菌	-3439
ote	-3440
技巧	-3441
gle	-3442
▁Ex	-3443
\",	-3444
ave	-3445
队员	-3446
疾病的	-3447
女足	-3448
名为	-3449
▁life	-3450
▁being	-3451
出发	-3452
彻底	-3453
广东省	-3454
120	-3455
终端	-3456
▁饰	-3457
尽快	-3458
损害	-3459
▁.	-3460
决策	-3461
▁var	-3462
▁great	-3463
集体	-3464
▁count	-3465
▁val	-3466
一条	-3467
录取	-3468
合作伙伴	-3469
同意	-3470
高考	-3471
▁before	-3472
团体	-3473
的数据	-3474
常规	-3475
版权	-3476
现代化	-3477
rol	-3478
新疆	-3479
保留	-3480
深化	-3481
▁information	-3482
收获	-3483
第十	-3484
味道	-3485
ield	-3486
可在	-3487
把握	-3488
眼睛	-3489
辽宁	-3490
更有	-3491
身边	-3492
▁used	-3493
▁Sp	-3494
800	-3495
▁inv	-3496
如果您	-3497
▁provid	-3498
提出了	-3499
▁pol	-3500
优异	-3501
英雄	-3502
电磁	-3503
til	-3504
周年	-3505
转变	-3506
是因为	-3507
严重的	-3508
策划	-3509
说的	-3510
再生	-3511
共和国	-3512
代谢	-3513
党的	-3514
ype	-3515
分泌	-3516
。《	-3517
说道	-3518
噪音	-3519
山西	-3520
水质	-3521
2.5	-3522
ier	-3523
加拿	-3524
革命	-3525
太阳能	-3526
运转	-3527
夏季	-3528
助攻	-3529
mber	-3530
车型	-3531
修改	-3532
air	-3533
权益	-3534
47	-3535
▁20	-3536
北京市	-3537
tiv	-3538
物联网	-3539
同期	-3540
锻炼	-3541
▁much	-3542
▁public	-3543
关闭	-3544
设定	-3545
重复	-3546
清理	-3547
渗透	-3548
设计的	-3549
ute	-3550
签订	-3551
建材	-3552
新鲜	-3553
身上	-3554
是以	-3555
发动机	-3556
可以通过	-3557
▁does	-3558
实际上	-3559
此时	-3560
典型	-3561
超声	-3562
积分	-3563
市政	-3564
引擎	-3565
园林	-3566
化妆	-3567
如有	-3568
第一个	-3569
农民	-3570
流行	-3571
▁po	-3572
手表	-3573
战斗	-3574
▁sim	-3575
厚的	-3576
皮肤病	-3577
基础设施	-3578
定义	-3579
机遇	-3580
arn	-3581
涵盖	-3582
主演	-3583
更高	-3584
抑制	-3585
大学生	-3586
本公司	-3587
性好	-3588
ger	-3589
直到	-3590
▁while	-3591
专题	-3592
协同	-3593
的特点	-3594
(1)	-3595
观点	-3596
更好地	-3597
权利	-3598
委托	-3599
▁aut	-3600
轨道	-3601
未来的	-3602
▁comple	-3603
▁because	-3604
▁As	-3605
ma	-3606
做了	-3607
发出	-3608
面试	-3609
转移	-3610
alk	-3611
son	-3612
遗传	-3613
的市场	-3614
大连	-3615
ration	-3616
千万	-3617
重的	-3618
地理	-3619
本人	-3620
很有	-3621
依托	-3622
当天	-3623
介绍了	-3624
局部	-3625
放弃	-3626
标准化	-3627
各大	-3628
评审	-3629
做的	-3630
▁person	-3631
rs	-3632
地铁	-3633
销量	-3634
健身	-3635
齐全	-3636
▁*	-3637
污泥	-3638
4-	-3639
3000	-3640
中药	-3641
硬件	-3642
▁using	-3643
奋斗	-3644
便捷	-3645
▁num	-3646
除尘	-3647
微生物	-3648
//	-3649
欧冠	-3650
水利	-3651
卓越	-3652
据了解	-3653
线下	-3654
使其	-3655
全方位	-3656
成为了	-3657
med	-3658
木材	-3659
▁plan	-3660
厂商	-3661
oint	-3662
替代	-3663
▁run	-3664
茶叶	-3665
也许	-3666
融入	-3667
”(	-3668
那个	-3669
镀锌	-3670
禁区	-3671
对比	-3672
ology	-3673
承受	-3674
tial	-3675
▁Ind	-3676
巨大	-3677
发明	-3678
▁sti	-3679
生活的	-3680
执法	-3681
因而	-3682
搭建	-3683
季节	-3684
本网站	-3685
情感	-3686
认定	-3687
人工智能	-3688
虚拟	-3689
还在	-3690
样品	-3691
振动	-3692
让我	-3693
比分	-3694
▁la	-3695
面上	-3696
和社会	-3697
催化	-3698
中有	-3699
带来了	-3700
▁care	-3701
87	-3702
会长	-3703
名的	-3704
国家级	-3705
▁hand	-3706
报考	-3707
常常	-3708
透露	-3709
巨大的	-3710
口罩	-3711
一级	-3712
充分发挥	-3713
设计师	-3714
ET	-3715
是个	-3716
▁found	-3717
硬度	-3718
制成	-3719
发作	-3720
孩子们	-3721
less	-3722
澳大利	-3723
很高	-3724
);	-3725
等待	-3726
ality	-3727
线的	-3728
工作中	-3729
旨在	-3730
▁child	-3731
澳大利亚	-3732
同一	-3733
航天	-3734
白癜风医院	-3735
oci	-3736
损伤	-3737
较高的	-3738
单元	-3739
储存	-3740
简介	-3741
聚氨	-3742
西亚	-3743
房间	-3744
服务的	-3745
高新技术	-3746
同时也	-3747
CC	-3748
▁did	-3749
▁If	-3750
过的	-3751
控股	-3752
ages	-3753
各自	-3754
奖励	-3755
▁each	-3756
夏天	-3757
出行	-3758
]\	-3759
但在	-3760
地区的	-3761
的基础上	-3762
用户的	-3763
日子	-3764
场的	-3765
溶液	-3766
扩展	-3767
进展	-3768
二次	-3769
我们可以	-3770
PV	-3771
达成	-3772
(2)	-3773
也就	-3774
日的	-3775
tit	-3776
入口	-3777
攻击	-3778
台北	-3779
男性	-3780
日期	-3781
有助于	-3782
▁11	-3783
In	-3784
而不	-3785
年底	-3786
春节	-3787
蛋白质	-3788
耐腐蚀	-3789
10.	-3790
提供的	-3791
自治区	-3792
ral	-3793
签约	-3794
增加了	-3795
冶金	-3796
静电	-3797
男子	-3798
已成为	-3799
以下简称	-3800
▁|	-3801
urrent	-3802
部的	-3803
影视	-3804
ee	-3805
▁those	-3806
这类	-3807
郑州	-3808
减轻	-3809
是不是	-3810
学生的	-3811
44	-3812
阀门	-3813
5-	-3814
效应	-3815
秘书	-3816
ross	-3817
平稳	-3818
树立	-3819
ailable	-3820
合法	-3821
地的	-3822
提到	-3823
数学	-3824
▁:	-3825
ween	-3826
力和	-3827
聚氨酯	-3828
▁med	-3829
黑色素	-3830
苏州	-3831
ists	-3832
ran	-3833
不了	-3834
采集	-3835
▁return	-3836
离心	-3837
式的	-3838
车站	-3839
财产	-3840
网页	-3841
老化	-3842
book	-3843
原材料	-3844
▁Bl	-3845
ah	-3846
并非	-3847
截止	-3848
▁him	-3849
英文	-3850
:30	-3851
试点	-3852
下去	-3853
这句话	-3854
克斯	-3855
LC	-3856
想法	-3857
是最	-3858
▁right	-3859
杂志	-3860
图像	-3861
运作	-3862
就在	-3863
▁around	-3864
微博	-3865
总裁	-3866
群体	-3867
orn	-3868
加拿大	-3869
▁gl	-3870
cy	-3871
信任	-3872
日报	-3873
取消	-3874
接种	-3875
竞技	-3876
有点	-3877
usic	-3878
税务	-3879
cer	-3880
山东省	-3881
展会	-3882
▁company	-3883
的机会	-3884
Ex	-3885
▁cust	-3886
欧元	-3887
可达	-3888
慢性	-3889
链接	-3890
ety	-3891
睡眠	-3892
条件下	-3893
会出现	-3894
ights	-3895
为客户提供	-3896
女儿	-3897
部长	-3898
禁止	-3899
板的	-3900
规律	-3901
家里	-3902
大陆	-3903
▁sign	-3904
time	-3905
气温	-3906
订单	-3907
齿轮	-3908
磨损	-3909
制药	-3910
各级	-3911
儿子	-3912
各界	-3913
一个人	-3914
que	-3915
89	-3916
东南	-3917
屏幕	-3918
的研究	-3919
每日	-3920
原来	-3921
越来越多	-3922
他人	-3923
生涯	-3924
系数	-3925
参加了	-3926
车的	-3927
远程	-3928
▁follow	-3929
▁build	-3930
导体	-3931
ident	-3932
看起来	-3933
三角	-3934
光伏	-3935
▁Be	-3936
不受	-3937
▁Americ	-3938
城区	-3939
防爆	-3940
这就是	-3941
▁sk	-3942
hone	-3943
等领域	-3944
收购	-3945
5000	-3946
的食物	-3947
已有	-3948
相结合	-3949
明白	-3950
上一	-3951
桥梁	-3952
板材	-3953
以外	-3954
疑问	-3955
成交	-3956
的故事	-3957
MP	-3958
▁state	-3959
▁both	-3960
身体健康	-3961
物资	-3962
切尔	-3963
学者	-3964
火灾	-3965
OR	-3966
框架	-3967
放入	-3968
婴儿	-3969
临时	-3970
战胜	-3971
的目的	-3972
聚焦	-3973
riend	-3974
以便	-3975
ets	-3976
精心	-3977
▁Res	-3978
运动员	-3979
reen	-3980
,3	-3981
局长	-3982
机组	-3983
be	-3984
▁fil	-3985
摩擦	-3986
造成的	-3987
就有	-3988
现在的	-3989
档案	-3990
分解	-3991
▁prof	-3992
飞机	-3993
之路	-3994
CE	-3995
服务器	-3996
任意	-3997
落地	-3998
本届	-3999
蒸汽	-4000
uss	-4001
ient	-4002
能在	-4003
风景	-4004
后续	-4005
感应	-4006
也没有	-4007
振兴	-4008
▁support	-4009
负荷	-4010
分配	-4011
ession	-4012
中华人民	-4013
▁Col	-4014
标签	-4015
人力资源	-4016
一批	-4017
高质量发展	-4018
团结	-4019
水中	-4020
长度	-4021
处置	-4022
二级	-4023
篮球	-4024
后期	-4025
人民政府	-4026
的精神	-4027
本站	-4028
多年来	-4029
称号	-4030
不够	-4031
海南	-4032
活动的	-4033
▁book	-4034
喜爱	-4035
精品	-4036
该公司	-4037
挖掘	-4038
道德	-4039
nJ	-4040
活性炭	-4041
▁think	-4042
入选	-4043
实体	-4044
是对	-4045
原本	-4046
一行	-4047
tent	-4048
仔细	-4049
体内	-4050
遵守	-4051
制造商	-4052
有序	-4053
承包	-4054
▁between	-4055
生态环境	-4056
等行业	-4057
42	-4058
ness	-4059
之下	-4060
通用	-4061
泡沫	-4062
发育	-4063
中华人民共和国	-4064
▁three	-4065
普及	-4066
女子	-4067
用药	-4068
产能	-4069
华为	-4070
迎来	-4071
▁including	-4072
难题	-4073
阵容	-4074
▁15	-4075
东北	-4076
▁form	-4077
▁place	-4078
大师	-4079
奉献	-4080
56	-4081
实在	-4082
77	-4083
安全性	-4084
vern	-4085
附加	-4086
便是	-4087
科技创新	-4088
oogle	-4089
els	-4090
日益	-4091
身心	-4092
rand	-4093
绿化	-4094
厂房	-4095
辅导	-4096
研讨	-4097
泰山	-4098
的信息	-4099
▁top	-4100
页面	-4101
▁open	-4102
今后	-4103
净水	-4104
APP	-4105
元件	-4106
二氧化	-4107
百度	-4108
▁—	-4109
Sta	-4110
问题的	-4111
击败	-4112
司法	-4113
rate	-4114
思路	-4115
等特点	-4116
▁bo	-4117
ished	-4118
紧密	-4119
可根据	-4120
发言	-4121
江苏省	-4122
ision	-4123
illion	-4124
对接	-4125
市政府	-4126
的功能	-4127
巴黎	-4128
▁cour	-4129
课题	-4130
ics	-4131
▁available	-4132
技术和	-4133
▁eas	-4134
间的	-4135
分数	-4136
固体	-4137
58	-4138
▁University	-4139
ges	-4140
完成了	-4141
43	-4142
协作	-4143
▁cho	-4144
对其	-4145
ele	-4146
▁resp	-4147
▁full	-4148
gy	-4149
党建	-4150
评论	-4151
4)	-4152
akes	-4153
快捷	-4154
主要用于	-4155
活力	-4156
ually	-4157
义务	-4158
利率	-4159
封闭	-4160
AI	-4161
公交	-4162
大概	-4163
ict	-4164
西部	-4165
▁month	-4166
nThis	-4167
诸多	-4168
太多	-4169
会导致	-4170
气象	-4171
成品	-4172
▁during	-4173
蒙古	-4174
产业发展	-4175
加坡	-4176
城乡	-4177
!”	-4178
研制	-4179
预算	-4180
给了	-4181
ved	-4182
全自动	-4183
ars	-4184
彼此	-4185
ited	-4186
经济发展	-4187
建立了	-4188
可能是	-4189
本土	-4190
阳市	-4191
浪费	-4192
不开	-4193
▁feat	-4194
NA	-4195
缺点	-4196
work	-4197
技术人员	-4198
▁ste	-4199
歌曲	-4200
过滤器	-4201
路线	-4202
直径	-4203
核酸	-4204
转载	-4205
形成了	-4206
指定	-4207
带有	-4208
课堂	-4209
婚姻	-4210
做法	-4211
我院	-4212
▁love	-4213
贫困	-4214
显得	-4215
国有	-4216
引起的	-4217
▁same	-4218
另一方面	-4219
衣服	-4220
女士	-4221
拿到	-4222
▁lar	-4223
下跌	-4224
ving	-4225
▁market	-4226
CP	-4227
公示	-4228
志愿者	-4229
的基本	-4230
的管理	-4231
百年	-4232
条例	-4233
权威	-4234
血压	-4235
▁rep	-4236
履行	-4237
报价	-4238
补偿	-4239
工人	-4240
快递	-4241
不知	-4242
新华	-4243
爱心	-4244
更大的	-4245
无缝	-4246
▁school	-4247
专注于	-4248
TV	-4249
新时代	-4250
敏感	-4251
发放	-4252
▁adv	-4253
2007	-4254
需要注意	-4255
ody	-4256
办学	-4257
78	-4258
,5	-4259
病因	-4260
ural	-4261
深圳市	-4262
尊重	-4263
全新的	-4264
生成	-4265
隔热	-4266
▁z	-4267
68	-4268
为企业	-4269
危机	-4270
刚刚	-4271
验收	-4272
超越	-4273
▁different	-4274
64	-4275
进而	-4276
合适的	-4277
小于	-4278
新加坡	-4279
▁process	-4280
好评	-4281
高品质	-4282
探讨	-4283
股权	-4284
的首	-4285
98	-4286
ired	-4287
外部	-4288
邮件	-4289
自身的	-4290
月底	-4291
淘汰	-4292
也不会	-4293
予以	-4294
依靠	-4295
事实上	-4296
进攻	-4297
解答	-4298
----	-4299
挑选	-4300
的经营	-4301
▁family	-4302
的朋友	-4303
▁rece	-4304
分散	-4305
上半年	-4306
整改	-4307
处罚	-4308
燃料	-4309
便于	-4310
SE	-4311
较大的	-4312
▁free	-4313
5%	-4314
少的	-4315
深受	-4316
疼痛	-4317
正确的	-4318
导向	-4319
▁contin	-4320
救援	-4321
充足	-4322
登录	-4323
▁cle	-4324
iving	-4325
▁still	-4326
是我们	-4327
干扰	-4328
▁health	-4329
本书	-4330
ering	-4331
顾问	-4332
必要的	-4333
以上就是	-4334
玻璃钢	-4335
师范	-4336
ption	-4337
外界	-4338
▁Is	-4339
中国的	-4340
无限	-4341
工会	-4342
ized	-4343
饰演	-4344
全程	-4345
评选	-4346
结束后	-4347
放置	-4348
ways	-4349
溶剂	-4350
市委	-4351
机电	-4352
用电	-4353
iden	-4354
心情	-4355
失败	-4356
最多	-4357
的过程	-4358
▁Co	-4359
AD	-4360
高速公路	-4361
真正的	-4362
板块	-4363
发送	-4364
合理的	-4365
公司在	-4366
bl	-4367
讲座	-4368
▁She	-4369
五年	-4370
篮板	-4371
都知道	-4372
▁inter	-4373
等多种	-4374
强大	-4375
特定	-4376
▁el	-4377
方的	-4378
财富	-4379
紧急	-4380
编制	-4381
有效地	-4382
供应链	-4383
回答	-4384
放松	-4385
想象	-4386
▁service	-4387
基本上	-4388
便宜	-4389
家族	-4390
途径	-4391
步骤	-4392
移民	-4393
粉末	-4394
百分点	-4395
回归	-4396
广播	-4397
毫米	-4398
体会	-4399
打破	-4400
电阻	-4401
预约	-4402
天下	-4403
类型的	-4404
lec	-4405
过度	-4406
爱好	-4407
优秀的	-4408
ray	-4409
共计	-4410
过于	-4411
▁Jo	-4412
开幕	-4413
副主任	-4414
涂层	-4415
▁gener	-4416
2006	-4417
好处	-4418
看见	-4419
oun	-4420
67	-4421
牛皮癣的	-4422
品牌的	-4423
女人	-4424
日电	-4425
界面	-4426
激发	-4427
读者	-4428
▁US	-4429
煤炭	-4430
发电机	-4431
的比赛	-4432
昆明	-4433
收藏	-4434
电视剧	-4435
cm	-4436
负担	-4437
皇马	-4438
EN	-4439
商家	-4440
前进	-4441
测定	-4442
▁2019	-4443
幼儿园	-4444
▁iss	-4445
接口	-4446
更大	-4447
国民	-4448
URL	-4449
照顾	-4450
与此	-4451
新生	-4452
还将	-4453
走向	-4454
留下	-4455
分公司	-4456
▁pass	-4457
放心	-4458
▁main	-4459
3,	-4460
走进	-4461
副书记	-4462
实地	-4463
》\	-4464
电站	-4465
▁cap	-4466
巴萨	-4467
旅客	-4468
所得	-4469
着力	-4470
党支部	-4471
为止	-4472
新兴	-4473
播放	-4474
由此	-4475
?",	-4476
而不是	-4477
精细	-4478
的感觉	-4479
pos	-4480
济南	-4481
好好	-4482
:1	-4483
hot	-4484
具有良好的	-4485
超声波	-4486
个百分点	-4487
柴油	-4488
▁Man	-4489
从业	-4490
可用	-4491
不仅仅	-4492
房子	-4493
你可以	-4494
▁conf	-4495
▁organ	-4496
坚定	-4497
验证	-4498
()	-4499
延伸	-4500
ining	-4501
差距	-4502
成效	-4503
立足	-4504
人们的	-4505
结婚	-4506
ware	-4507
诉讼	-4508
引入	-4509
战争	-4510
都市	-4511
场上	-4512
切尔西	-4513
▁disc	-4514
性强	-4515
日晚	-4516
他说	-4517
点的	-4518
零部件	-4519
白酒	-4520
国家队	-4521
成人	-4522
▁number	-4523
来看看	-4524
不得不	-4525
缩短	-4526
手续	-4527
座谈	-4528
要有	-4529
魅力	-4530
形态	-4531
▁tri	-4532
▁ear	-4533
威胁	-4534
对应	-4535
法兰	-4536
rop	-4537
▁To	-4538
tend	-4539
业内	-4540
到来	-4541
余人	-4542
的目标	-4543
-1	-4544
uck	-4545
期刊	-4546
jec	-4547
这部	-4548
出现在	-4549
换热	-4550
整治	-4551
业主	-4552
2.0	-4553
通报	-4554
▁cor	-4555
管理局	-4556
三种	-4557
▁act	-4558
新冠肺炎	-4559
担当	-4560
互相	-4561
▁}\	-4562
电子商务	-4563
小说	-4564
只需	-4565
,1	-4566
▁Tr	-4567
室外	-4568
女孩	-4569
和技术	-4570
需要的	-4571
▁ref	-4572
▁really	-4573
等地	-4574
缺陷	-4575
信誉	-4576
洁净	-4577
补贴	-4578
不多	-4579
仓库	-4580
号码	-4581
pr	-4582
占地面积	-4583
遭遇	-4584
ternational	-4585
明显的	-4586
▁file	-4587
wit	-4588
完善的	-4589
了解到	-4590
另一个	-4591
龙头	-4592
环境的	-4593
outh	-4594
▁system	-4595
老板	-4596
现金	-4597
厘米	-4598
报导	-4599
tim	-4600
0.0	-4601
经销	-4602
回家	-4603
小程序	-4604
规定的	-4605
8、	-4606
厦门	-4607
半导体	-4608
甲醛	-4609
复发	-4610
IM	-4611
的第一	-4612
平安	-4613
争取	-4614
by	-4615
装配	-4616
是很	-4617
粉尘	-4618
▁ann	-4619
发达	-4620
要求的	-4621
▁ter	-4622
激素	-4623
感受到	-4624
流通	-4625
职责	-4626
进程	-4627
库存	-4628
美容	-4629
为此	-4630
tical	-4631
性格	-4632
审批	-4633
起了	-4634
发酵	-4635
火锅	-4636
米兰	-4637
反馈	-4638
出去	-4639
占比	-4640
▁pur	-4641
▁current	-4642
ather	-4643
城镇	-4644
格局	-4645
不超过	-4646
分别为	-4647
还没有	-4648
有趣	-4649
万平方米	-4650
我想	-4651
供电	-4652
mit	-4653
激励	-4654
▁inf	-4655
年轻人	-4656
答案	-4657
enter	-4658
这也	-4659
标准的	-4660
59	-4661
角逐	-4662
丙烯	-4663
地质	-4664
外国	-4665
平面	-4666
打进	-4667
粮食	-4668
信赖	-4669
热量	-4670
种子	-4671
或者是	-4672
▁second	-4673
纳税	-4674
蒸发	-4675
多数	-4676
陆续	-4677
创立	-4678
earch	-4679
ged	-4680
等问题	-4681
沉淀	-4682
▁call	-4683
以往	-4684
indows	-4685
镜头	-4686
才会	-4687
nY	-4688
天然气	-4689
级的	-4690
喷涂	-4691
af	-4692
数据显示	-4693
ounc	-4694
燃气	-4695
节奏	-4696
讲话	-4697
祝福	-4698
\"\	-4699
▁art	-4700
场合	-4701
记得	-4702
一段时间	-4703
返回	-4704
要素	-4705
长沙	-4706
EM	-4707
初期	-4708
性价	-4709
▁2018	-4710
▁But	-4711
噪声	-4712
东京	-4713
选购	-4714
首席	-4715
全年	-4716
国产	-4717
69	-4718
不断的	-4719
▁impor	-4720
▁sl	-4721
她们	-4722
葡萄酒	-4723
我们要	-4724
一方面	-4725
时光	-4726
ST	-4727
tics	-4728
一句	-4729
》。	-4730
将继续	-4731
这两	-4732
上线	-4733
国家的	-4734
▁happ	-4735
▁30	-4736
▁How	-4737
2005	-4738
▁lo	-4739
图书馆	-4740
orth	-4741
期限	-4742
十四	-4743
79	-4744
公斤	-4745
等相关	-4746
消失	-4747
AL	-4748
发布的	-4749
最为	-4750
兄弟	-4751
大道	-4752
长江	-4753
▁next	-4754
主帅	-4755
▁try	-4756
被称为	-4757
欣赏	-4758
▁experience	-4759
全身	-4760
传染	-4761
奶茶	-4762
AP	-4763
初步	-4764
上海市	-4765
变频	-4766
物浦	-4767
扫描	-4768
服用	-4769
舞蹈	-4770
原创	-4771
电网	-4772
▁since	-4773
河南省	-4774
对话	-4775
考虑到	-4776
填写	-4777
潜力	-4778
打击	-4779
薄膜	-4780
塑胶	-4781
在不	-4782
ploy	-4783
▁All	-4784
扶贫	-4785
附件	-4786
卫星	-4787
福利	-4788
月的	-4789
,000	-4790
格兰	-4791
提取	-4792
类的	-4793
主机	-4794
看来	-4795
百姓	-4796
子公司	-4797
别的	-4798
▁going	-4799
好了	-4800
为主题	-4801
国家和	-4802
之处	-4803
▁site	-4804
等的	-4805
短期	-4806
稳定的	-4807
哪个	-4808
利物浦	-4809
ux	-4810
增速	-4811
arch	-4812
汇报	-4813
携带	-4814
▁poss	-4815
%、	-4816
患者在	-4817
人才培养	-4818
较好的	-4819
指示	-4820
Ch	-4821
ann	-4822
很少	-4823
肌肉	-4824
现状	-4825
ED	-4826
爆炸	-4827
52	-4828
▁+	-4829
实习	-4830
人文	-4831
医治	-4832
三是	-4833
两次	-4834
昨天	-4835
病的	-4836
离婚	-4837
ogra	-4838
▁199	-4839
紫外线	-4840
上有	-4841
宇宙	-4842
▁cal	-4843
开心	-4844
能否	-4845
开工	-4846
集团有限公司	-4847
型材	-4848
ittle	-4849
不在	-4850
资助	-4851
上市公司	-4852
尼亚	-4853
这项	-4854
破碎	-4855
心里	-4856
下一步	-4857
iti	-4858
的形式	-4859
▁fac	-4860
最后一	-4861
耐用	-4862
观念	-4863
ission	-4864
之为	-4865
次数	-4866
防范	-4867
cha	-4868
41	-4869
认知	-4870
57	-4871
▁ob	-4872
主角	-4873
开发区	-4874
过敏	-4875
依旧	-4876
重要的是	-4877
那样	-4878
(3)	-4879
arm	-4880
ream	-4881
聚集	-4882
初心	-4883
数据库	-4884
▁few	-4885
显然	-4886
还需要	-4887
四川省	-4888
获奖	-4889
扎实	-4890
供水	-4891
凝聚	-4892
出租	-4893
▁ide	-4894
后卫	-4895
控制系统	-4896
公平	-4897
是一款	-4898
性价比	-4899
依赖	-4900
疲劳	-4901
尽可能	-4902
▁techn	-4903
占据	-4904
St	-4905
iver	-4906
▁partic	-4907
par	-4908
).\	-4909
身份证	-4910
▁Se	-4911
▁though	-4912
orld	-4913
固化	-4914
,19	-4915
如果是	-4916
▁oper	-4917
合肥	-4918
▁keep	-4919
出场	-4920
所以在	-4921
电信	-4922
防守	-4923
有多	-4924
法人	-4925
程度上	-4926
接着	-4927
▁water	-4928
ced	-4929
为一体的	-4930
度假	-4931
的成绩	-4932
水平的	-4933
of	-4934
盈利	-4935
配送	-4936
究竟	-4937
借助	-4938
gin	-4939
加油	-4940
▁16	-4941
BS	-4942
建筑面积	-4943
水箱	-4944
一同	-4945
泰国	-4946
第六	-4947
飞行	-4948
都很	-4949
青睐	-4950
▁week	-4951
痛苦	-4952
bo	-4953
可用于	-4954
东莞	-4955
攻坚	-4956
ney	-4957
相似	-4958
吉林	-4959
会影响	-4960
RO	-4961
贵的	-4962
不如	-4963
村民	-4964
▁ve	-4965
11.	-4966
看着	-4967
://	-4968
少数	-4969
五金	-4970
一般来说	-4971
忽视	-4972
我司	-4973
的表现	-4974
1/	-4975
景点	-4976
污染物	-4977
72	-4978
著作	-4979
隧道	-4980
节日	-4981
抓住	-4982
家电	-4983
西南	-4984
化妆品	-4985
优质的	-4986
仅仅	-4987
博览	-4988
ds	-4989
十大	-4990
nWe	-4991
排除	-4992
我市	-4993
再度	-4994
的原则	-4995
与此同时	-4996
影像	-4997
TM	-4998
仓储	-4999
腾讯	-5000
活跃	-5001
口碑	-5002
▁App	-5003
并将	-5004
理工	-5005
▁stand	-5006
压器	-5007
▁Car	-5008
校区	-5009
螺旋	-5010
内心	-5011
总额	-5012
账户	-5013
▁win	-5014
能力和	-5015
影响力	-5016
table	-5017
tail	-5018
管控	-5019
地震	-5020
的光	-5021
山区	-5022
主要有	-5023
12.	-5024
集团公司	-5025
进度	-5026
...\	-5027
裁判	-5028
清除	-5029
延续	-5030
这一点	-5031
膨胀	-5032
年前	-5033
诱发	-5034
口腔	-5035
曼城	-5036
足协	-5037
圆满	-5038
老年人	-5039
招商	-5040
当年	-5041
气氛	-5042
▁Ro	-5043
起重机	-5044
必然	-5045
小心	-5046
欧盟	-5047
业界	-5048
健康的	-5049
导师	-5050
了很多	-5051
调试	-5052
高铁	-5053
市场需求	-5054
the	-5055
环氧	-5056
▁services	-5057
▁Or	-5058
久的	-5059
各国	-5060
拜仁	-5061
▁real	-5062
回报	-5063
持有	-5064
沈阳	-5065
开设	-5066
子女	-5067
我们就	-5068
波动	-5069
灌装	-5070
hor	-5071
▁head	-5072
溶解	-5073
供给	-5074
ior	-5075
爸爸	-5076
体检	-5077
承载	-5078
▁provide	-5079
BC	-5080
、“	-5081
党委书记	-5082
练习	-5083
84	-5084
110	-5085
的学生	-5086
极大	-5087
▁men	-5088
▁14	-5089
ml	-5090
心态	-5091
前期	-5092
口感	-5093
基础上	-5094
▁access	-5095
糖尿	-5096
热门	-5097
支球队	-5098
进出口	-5099
同事	-5100
load	-5101
那里	-5102
ator	-5103
架构	-5104
共产	-5105
四大	-5106
得分	-5107
▁special	-5108
ech	-5109
矿山	-5110
oss	-5111
采用了	-5112
举措	-5113
App	-5114
建设的	-5115
▁program	-5116
lection	-5117
晋级	-5118
可靠性	-5119
,2	-5120
中小企业	-5121
潜在	-5122
会对	-5123
第三方	-5124
删除	-5125
球场	-5126
花园	-5127
):	-5128
强劲	-5129
超市	-5130
▁direct	-5131
浙江省	-5132
的发生	-5133
一带	-5134
的优势	-5135
出台	-5136
▁mov	-5137
纳入	-5138
出售	-5139
甘肃	-5140
的变化	-5141
参展	-5142
II	-5143
uper	-5144
是可以	-5145
▁say	-5146
,2021	-5147
站在	-5148
享有	-5149
等多	-5150
▁suc	-5151
夫妻	-5152
心脏	-5153
接头	-5154
化合物	-5155
无数	-5156
带给	-5157
过了	-5158
▁opp	-5159
称之为	-5160
▁Cha	-5161
强制	-5162
ives	-5163
▁They	-5164
工件	-5165
▁working	-5166
uro	-5167
边缘	-5168
bsite	-5169
▁too	-5170
易于	-5171
▁dep	-5172
填料	-5173
富有	-5174
长春	-5175
omen	-5176
杂质	-5177
可能性	-5178
edia	-5179
研究中心	-5180
马上	-5181
一边	-5182
的东西	-5183
签署	-5184
acebook	-5185
男人	-5186
rest	-5187
有一定的	-5188
-2	-5189
垂直	-5190
常用的	-5191
钢材	-5192
评为	-5193
德里	-5194
ever	-5195
克服	-5196
公寓	-5197
不论	-5198
退休	-5199
麻烦	-5200
压缩机	-5201
接收	-5202
受伤	-5203
尚未	-5204
新建	-5205
疗法	-5206
温室	-5207
ury	-5208
的核心	-5209
EC	-5210
特种	-5211
留学	-5212
▁On	-5213
铸造	-5214
用作	-5215
rong	-5216
国安	-5217
创始	-5218
ries	-5219
tand	-5220
好像	-5221
▁cha	-5222
纽约	-5223
ense	-5224
▁met	-5225
处的	-5226
窗口	-5227
均为	-5228
▁Wh	-5229
快的	-5230
要在	-5231
万美元	-5232
的中国	-5233
”)	-5234
生产厂家	-5235
能耗	-5236
遵循	-5237
治愈	-5238
批发	-5239
传媒	-5240
请求	-5241
申请人	-5242
几天	-5243
反而	-5244
iron	-5245
orm	-5246
嘉宾	-5247
肌肤	-5248
增大	-5249
下一	-5250
域名	-5251
yle	-5252
单一	-5253
地图	-5254
并对	-5255
▁dri	-5256
53	-5257
可分为	-5258
ocial	-5259
每一位	-5260
受欢迎	-5261
缴纳	-5262
NBA	-5263
前来	-5264
aster	-5265
全世界	-5266
纳米	-5267
约为	-5268
减肥	-5269
他们在	-5270
古代	-5271
民间	-5272
ours	-5273
这就	-5274
事业单位	-5275
▁friend	-5276
人员的	-5277
杀菌	-5278
水处理	-5279
的高度	-5280
理由	-5281
发售	-5282
ror	-5283
许可证	-5284
的现象	-5285
高清	-5286
▁big	-5287
总局	-5288
行驶	-5289
1.0	-5290
有力	-5291
最重要的	-5292
▁17	-5293
年初	-5294
自信	-5295
ley	-5296
ideo	-5297
当代	-5298
阿里	-5299
▁pop	-5300
随意	-5301
上映	-5302
有限责任	-5303
办事	-5304
▁、	-5305
OC	-5306
不错的	-5307
解决了	-5308
单独	-5309
份额	-5310
诊疗	-5311
家中	-5312
▁always	-5313
不太	-5314
▁expl	-5315
除此	-5316
器件	-5317
债券	-5318
发布会	-5319
▁area	-5320
游泳	-5321
跟踪	-5322
路上	-5323
罗马	-5324
96	-5325
成年	-5326
时间内	-5327
▁pri	-5328
民生	-5329
go	-5330
▁"“	-5331
坚决	-5332
▁proper	-5333
一张	-5334
科学院	-5335
▁mo	-5336
与其他	-5337
要想	-5338
Con	-5339
ling	-5340
分辨	-5341
到位	-5342
匹配	-5343
的位置	-5344
ruct	-5345
人大	-5346
ording	-5347
圆形	-5348
▁2017	-5349
视为	-5350
庆祝	-5351
阿尔	-5352
注意事项	-5353
比亚	-5354
辉煌	-5355
多人	-5356
宁波	-5357
两大	-5358
▁local	-5359
更高的	-5360
tice	-5361
审计	-5362
在全国	-5363
了解一下	-5364
▁view	-5365
▁和	-5366
,4	-5367
标识	-5368
不应	-5369
达到了	-5370
▁rese	-5371
率先	-5372
我在	-5373
ern	-5374
寻求	-5375
环境保护	-5376
有望	-5377
不变	-5378
接待	-5379
ung	-5380
agement	-5381
▁prote	-5382
统筹	-5383
澳门	-5384
出色	-5385
发布了	-5386
83	-5387
冷冻	-5388
暂时	-5389
tance	-5390
期货	-5391
较强的	-5392
润滑油	-5393
54	-5394
精确	-5395
真诚	-5396
坐落	-5397
电线	-5398
ush	-5399
补助	-5400
两位	-5401
曝光	-5402
ai	-5403
常务	-5404
增值	-5405
总监	-5406
授予	-5407
书法	-5408
显示屏	-5409
快速增长	-5410
PVC	-5411
顶级	-5412
高峰	-5413
urs	-5414
▁Eng	-5415
▁proble	-5416
凌晨	-5417
都没有	-5418
十三	-5419
自学	-5420
山市	-5421
图案	-5422
健全	-5423
第一时间	-5424
TC	-5425
客服	-5426
降温	-5427
nU	-5428
duct	-5429
在国内	-5430
ism	-5431
明年	-5432
无疑	-5433
读书	-5434
支援	-5435
视野	-5436
以此	-5437
作物	-5438
的美	-5439
▁today	-5440
传奇	-5441
有没有	-5442
ards	-5443
▁No	-5444
科学家	-5445
▁feel	-5446
石化	-5447
▁Me	-5448
该项目	-5449
别墅	-5450
广阔	-5451
立体	-5452
ump	-5453
ants	-5454
乐观	-5455
早日	-5456
的不同	-5457
法定	-5458
复印	-5459
多吃	-5460
演唱	-5461
装箱	-5462
nK	-5463
基金会	-5464
▁grow	-5465
组建	-5466
▁event	-5467
较多	-5468
美好的	-5469
▁er	-5470
复杂的	-5471
▁Can	-5472
未能	-5473
文化的	-5474
SS	-5475
计量	-5476
和平	-5477
排查	-5478
大厦	-5479
布置	-5480
癌症	-5481
日常生活中	-5482
学校的	-5483
▁bro	-5484
荷兰	-5485
val	-5486
层的	-5487
anta	-5488
人和	-5489
▁start	-5490
▁"【	-5491
▁another	-5492
▁without	-5493
得以	-5494
亲子	-5495
▁able	-5496
公务	-5497
格式	-5498
▁ques	-5499
▁students	-5500
建筑物	-5501
▁incre	-5502
▁sing	-5503
yn	-5504
ruc	-5505
主流	-5506
农产品	-5507
电梯	-5508
雕塑	-5509
2023	-5510
▁level	-5511
在一	-5512
我是	-5513
伦敦	-5514
应力	-5515
接地	-5516
▁equ	-5517
南方	-5518
▁eng	-5519
TO	-5520
贯彻落实	-5521
明天	-5522
之际	-5523
经销商	-5524
服务中心	-5525
回忆	-5526
中国队	-5527
遗产	-5528
直流	-5529
妻子	-5530
赢得了	-5531
内蒙古	-5532
效率高	-5533
毫无	-5534
▁2020	-5535
区块	-5536
▁pay	-5537
漂亮	-5538
排出	-5539
告知	-5540
63	-5541
▁indust	-5542
工序	-5543
为核心	-5544
▁better	-5545
度和	-5546
▁sure	-5547
▁appro	-5548
频道	-5549
生意	-5550
企业在	-5551
生理	-5552
▁100	-5553
西北	-5554
电解	-5555
管理的	-5556
▁Sh	-5557
低碳	-5558
商场	-5559
une	-5560
本周	-5561
船舶	-5562
养生	-5563
转会	-5564
活动中	-5565
城市的	-5566
▁something	-5567
▁et	-5568
▁project	-5569
常用	-5570
瞬间	-5571
堵塞	-5572
非常的	-5573
阻燃	-5574
在大	-5575
-10	-5576
的一部分	-5577
ubl	-5578
关怀	-5579
▁imp	-5580
妇女	-5581
2004	-5582
▁four	-5583
为用户	-5584
试剂	-5585
转速	-5586
艺术家	-5587
为何	-5588
动的	-5589
共赢	-5590
弘扬	-5591
感兴趣	-5592
时间的	-5593
▁community	-5594
的结果	-5595
▁13	-5596
民营	-5597
亮相	-5598
机械设备	-5599
ider	-5600
强烈	-5601
igin	-5602
▁visit	-5603
困扰	-5604
非洲	-5605
落后	-5606
▁Fl	-5607
命运	-5608
器械	-5609
承办	-5610
不容易	-5611
oney	-5612
率为	-5613
▁So	-5614
广泛的	-5615
▁custome	-5616
演讲	-5617
主力	-5618
UV	-5619
的全	-5620
发热	-5621
▁x	-5622
change	-5623
上班	-5624
工地	-5625
消费者的	-5626
储备	-5627
97	-5628
当下	-5629
ny	-5630
净利润	-5631
-19	-5632
特殊的	-5633
一直在	-5634
适宜	-5635
很多的	-5636
光滑	-5637
ource	-5638
,10	-5639
完整的	-5640
液晶	-5641
及以上	-5642
在美国	-5643
患有	-5644
不当	-5645
微量	-5646
朋友们	-5647
冲洗	-5648
水性	-5649
及相关	-5650
前沿	-5651
82	-5652
▁perform	-5653
专辑	-5654
▁late	-5655
坚实	-5656
有机会	-5657
上周	-5658
适当的	-5659
灾害	-5660
足够的	-5661
神秘	-5662
综合性	-5663
▁meet	-5664
隔音	-5665
违反	-5666
友谊	-5667
面前	-5668
发了	-5669
原始	-5670
▁Tra	-5671
cel	-5672
50%	-5673
实际情况	-5674
0.5	-5675
cent	-5676
▁against	-5677
某种	-5678
这场	-5679
有限责任公司	-5680
降低了	-5681
冷凝	-5682
科目	-5683
ured	-5684
▁must	-5685
▁music	-5686
境外	-5687
财经	-5688
ask	-5689
不利	-5690
优越	-5691
180	-5692
和发展	-5693
▁There	-5694
roid	-5695
nV	-5696
玉米	-5697
orts	-5698
ule	-5699
注明	-5700
付出	-5701
?”	-5702
远离	-5703
当事	-5704
▁hist	-5705
icial	-5706
在新	-5707
对待	-5708
具体的	-5709
cri	-5710
致的	-5711
均可	-5712
关键词	-5713
校友	-5714
这时	-5715
▁website	-5716
糖尿病	-5717
目录	-5718
是比较	-5719
听到	-5720
外形	-5721
抵抗	-5722
取决	-5723
ories	-5724
取代	-5725
交付	-5726
粉碎	-5727
内涵	-5728
方针	-5729
患上	-5730
矛盾	-5731
▁@	-5732
▁spe	-5733
斯坦	-5734
开展了	-5735
给你	-5736
▁law	-5737
硫酸	-5738
的关系	-5739
文物	-5740
红外	-5741
一款	-5742
▁mar	-5743
仅有	-5744
职称	-5745
面板	-5746
▁#	-5747
▁old	-5748
秘书长	-5749
进行治疗	-5750
美丽的	-5751
▁bre	-5752
将以	-5753
家用	-5754
为中心	-5755
战绩	-5756
饲料	-5757
DA	-5758
▁important	-5759
成功的	-5760
▁doc	-5761
▁applic	-5762
网站的	-5763
气的	-5764
升降	-5765
▁list	-5766
发性	-5767
留在	-5768
最具	-5769
这对	-5770
▁things	-5771
免疫力	-5772
▁mat	-5773
捐赠	-5774
洗涤	-5775
一支	-5776
配电	-5777
手动	-5778
制的	-5779
▁let	-5780
▁function	-5781
可以根据	-5782
男篮	-5783
连锁	-5784
检察	-5785
姆斯	-5786
债务	-5787
逻辑	-5788
摄像	-5789
港口	-5790
的历史	-5791
发起	-5792
vernment	-5793
教材	-5794
的项目	-5795
▁dist	-5796
抛光	-5797
赛后	-5798
扮演	-5799
▁little	-5800
合约	-5801
情形	-5802
奖项	-5803
不宜	-5804
频繁	-5805
▁small	-5806
取决于	-5807
We	-5808
激烈	-5809
心中	-5810
件事	-5811
我们会	-5812
▁ext	-5813
??	-5814
龙江	-5815
▁power	-5816
rist	-5817
局面	-5818
市长	-5819
分别是	-5820
是否有	-5821
62	-5822
物体	-5823
▁within	-5824
发射	-5825
备案	-5826
牙齿	-5827
或其他	-5828
▁success	-5829
几种	-5830
组成的	-5831
▁put	-5832
三十	-5833
都需要	-5834
较好	-5835
过多	-5836
▁group	-5837
▁addition	-5838
的状态	-5839
历程	-5840
新材料	-5841
▁children	-5842
更容易	-5843
每周	-5844
味的	-5845
色素	-5846
的人生	-5847
农药	-5848
耐火	-5849
不想	-5850
说法	-5851
ract	-5852
水泵	-5853
各部门	-5854
内地	-5855
标题	-5856
马来	-5857
除此之外	-5858
助理	-5859
51	-5860
注入	-5861
看出	-5862
给人	-5863
SC	-5864
夺冠	-5865
▁May	-5866
▁prin	-5867
手工	-5868
▁lot	-5869
▁ph	-5870
光学	-5871
的规定	-5872
见证	-5873
发生了	-5874
ases	-5875
tact	-5876
加密	-5877
安全的	-5878
等优点	-5879
首批	-5880
假如	-5881
icro	-5882
存在的	-5883
▁At	-5884
代替	-5885
nec	-5886
多名	-5887
非法	-5888
证实	-5889
▁give	-5890
啤酒	-5891
不含	-5892
管理系统	-5893
受理	-5894
焦点	-5895
ulti	-5896
sh	-5897
高新技术企业	-5898
射门	-5899
在一个	-5900
叶片	-5901
tor	-5902
慈善	-5903
又称	-5904
科学技术	-5905
限于	-5906
▁Jan	-5907
每月	-5908
科普	-5909
ample	-5910
集装箱	-5911
che	-5912
常态	-5913
▁season	-5914
再加上	-5915
钢丝	-5916
黄色	-5917
ined	-5918
交叉	-5919
行程	-5920
组件	-5921
▁cent	-5922
tel	-5923
及其他	-5924
层面	-5925
一项	-5926
违规	-5927
中医药	-5928
来讲	-5929
▁With	-5930
假期	-5931
货运	-5932
奥运会	-5933
抵达	-5934
ister	-5935
▁days	-5936
越来越多的	-5937
▁hard	-5938
最初	-5939
什么是	-5940
渐渐	-5941
反对	-5942
秩序	-5943
▁online	-5944
最早	-5945
耐高温	-5946
</	-5947
用地	-5948
ipp	-5949
2003	-5950
mbers	-5951
分的	-5952
▁post	-5953
▁recent	-5954
不久	-5955
身体的	-5956
乃至	-5957
大批	-5958
已经成为	-5959
一度	-5960
是为了	-5961
站式	-5962
变更	-5963
减少了	-5964
得了	-5965
效力	-5966
祖国	-5967
焦虑	-5968
arent	-5969
电视台	-5970
▁24	-5971
vious	-5972
赔偿	-5973
gen	-5974
怀孕	-5975
触摸	-5976
本着	-5977
本场比赛	-5978
的设备	-5979
五个	-5980
压机	-5981
试管	-5982
▁change	-5983
灭火	-5984
展现出	-5985
上传	-5986
的公司	-5987
多了	-5988
司机	-5989
牢固	-5990
等工作	-5991
客观	-5992
合并	-5993
灯光	-5994
的介绍	-5995
门店	-5996
ille	-5997
▁air	-5998
证据	-5999
乐园	-6000
组织的	-6001
回来	-6002
无机	-6003
▁Ph	-6004
咱们	-6005
立方	-6006
交易所	-6007
三星	-6008
创办	-6009
算法	-6010
钢筋	-6011
纠纷	-6012
用心	-6013
可持续发展	-6014
下滑	-6015
于一体的	-6016
PM	-6017
1500	-6018
ird	-6019
▁order	-6020
脱贫	-6021
股价	-6022
oot	-6023
▁cer	-6024
joy	-6025
room	-6026
会展	-6027
企业和	-6028
职业教育	-6029
清水	-6030
传达	-6031
后果	-6032
用人	-6033
ately	-6034
低压	-6035
上去	-6036
解读	-6037
北方	-6038
乡村振兴	-6039
的就是	-6040
上赛季	-6041
核酸检测	-6042
邮箱	-6043
250	-6044
73	-6045
螺杆	-6046
进取	-6047
控制器	-6048
▁create	-6049
▁million	-6050
油烟	-6051
tall	-6052
秘密	-6053
指南	-6054
治疗的	-6055
税收	-6056
受到了	-6057
住宿	-6058
▁case	-6059
小孩	-6060
减速机	-6061
乘坐	-6062
。19	-6063
警方	-6064
▁vo	-6065
今年的	-6066
河北省	-6067
viron	-6068
怎么办	-6069
公民	-6070
▁Ac	-6071
公众号	-6072
大家的	-6073
歌手	-6074
环比	-6075
迎接	-6076
货架	-6077
灰尘	-6078
队在	-6079
导热	-6080
爆发	-6081
自考	-6082
话题	-6083
人民法院	-6084
流水	-6085
条件的	-6086
跟着	-6087
技术创新	-6088
入学	-6089
ocus	-6090
ery	-6091
象征	-6092
olution	-6093
的品牌	-6094
时机	-6095
当你	-6096
自觉	-6097
中场	-6098
hol	-6099
地上	-6100
本质	-6101
▁got	-6102
Re	-6103
怎么样	-6104
体质	-6105
ature	-6106
为基础	-6107
作风	-6108
打算	-6109
总统	-6110
员工的	-6111
增进	-6112
螺栓	-6113
时间为	-6114
玩具	-6115
ization	-6116
起点	-6117
百万	-6118
学家	-6119
询问	-6120
74	-6121
经济社会	-6122
下列	-6123
的所有	-6124
铸铁	-6125
贝尔	-6126
搬运	-6127
组成部分	-6128
劳务	-6129
为中国	-6130
排气	-6131
继承	-6132
支出	-6133
谨慎	-6134
一片	-6135
人都	-6136
▁1.	-6137
系列产品	-6138
Pro	-6139
,6	-6140
升高	-6141
将是	-6142
优良的	-6143
转让	-6144
背后	-6145
前锋	-6146
my	-6147
外壳	-6148
wards	-6149
环境中	-6150
军事	-6151
一套	-6152
占有	-6153
水管	-6154
ared	-6155
富含	-6156
早上	-6157
暴露	-6158
水量	-6159
下来的	-6160
lex	-6161
米的	-6162
编程	-6163
那就是	-6164
▁turn	-6165
是目前	-6166
高层	-6167
机动	-6168
▁25	-6169
▁Min	-6170
暂停	-6171
争议	-6172
和管理	-6173
.,	-6174
相当于	-6175
▁offer	-6176
AA	-6177
省市	-6178
▁Dec	-6179
',	-6180
▁uni	-6181
极大的	-6182
ieve	-6183
值得一	-6184
您可以	-6185
这是一个	-6186
日讯	-6187
热点	-6188
业的	-6189
轮胎	-6190
个性化	-6191
▁Ins	-6192
之所以	-6193
本来	-6194
▁fact	-6195
▁works	-6196
==	-6197
骨干	-6198
估计	-6199
让他	-6200
载体	-6201
▁ask	-6202
新产品	-6203
职能	-6204
2002	-6205
奖金	-6206
Hz	-6207
花费	-6208
副总经理	-6209
陷入	-6210
奠定	-6211
高度重视	-6212
▁line	-6213
探测	-6214
发生在	-6215
项目建设	-6216
▁making	-6217
认同	-6218
▁School	-6219
的温度	-6220
DP	-6221
观光	-6222
支架	-6223
ivid	-6224
为您提供	-6225
play	-6226
的世界	-6227
▁country	-6228
不大	-6229
▁chang	-6230
养护	-6231
▁月	-6232
牛奶	-6233
语音	-6234
ults	-6235
院士	-6236
修订	-6237
弯曲	-6238
ames	-6239
共建	-6240
器材	-6241
佩戴	-6242
造价	-6243
里斯	-6244
▁leg	-6245
并与	-6246
班子	-6247
也就是说	-6248
表彰	-6249
nIf	-6250
添加剂	-6251
-3	-6252
争夺	-6253
为你	-6254
石墨	-6255
接到	-6256
mo	-6257
▁saf	-6258
第七	-6259
▁2016	-6260
的标准	-6261
▁Pe	-6262
▁record	-6263
有一些	-6264
热爱	-6265
▁unders	-6266
必须要	-6267
践行	-6268
MA	-6269
组装	-6270
大脑	-6271
生日	-6272
▁become	-6273
感动	-6274
RE	-6275
耐心	-6276
前后	-6277
队长	-6278
▁"《	-6279
一部分	-6280
主教练	-6281
几十	-6282
还原	-6283
粘度	-6284
不断提高	-6285
TA	-6286
了解更多	-6287
已完成	-6288
冲突	-6289
是要	-6290
附属	-6291
▁looking	-6292
相反	-6293
能够在	-6294
快速发展	-6295
大规模	-6296
,2020	-6297
应用程序	-6298
,7	-6299
冬天	-6300
obal	-6301
价值观	-6302
▁Ste	-6303
私人	-6304
联动	-6305
马克	-6306
跨境	-6307
哈尔	-6308
工作者	-6309
个体	-6310
一周	-6311
泄漏	-6312
男女	-6313
创始人	-6314
拍卖	-6315
投票	-6316
只需要	-6317
ised	-6318
▁Ass	-6319
考验	-6320
必需	-6321
并未	-6322
▁World	-6323
SP	-6324
▁En	-6325
▁quality	-6326
uf	-6327
就算	-6328
主营	-6329
大专	-6330
put	-6331
可谓	-6332
交通运输	-6333
不起	-6334
精英	-6335
nIt	-6336
全民	-6337
外的	-6338
观赏	-6339
▁aff	-6340
其余	-6341
还可	-6342
1%	-6343
治疗白癜风	-6344
▁impro	-6345
的材料	-6346
的通知	-6347
黑龙江	-6348
ding	-6349
石材	-6350
礼品	-6351
uture	-6352
相关部门	-6353
离不开	-6354
历史上	-6355
▁members	-6356
ball	-6357
极为	-6358
是我	-6359
的多	-6360
不出	-6361
有利	-6362
ners	-6363
▁John	-6364
养成	-6365
有时候	-6366
本网	-6367
新能源汽车	-6368
二手	-6369
▁room	-6370
与会	-6371
土工	-6372
▁came	-6373
豪华	-6374
绩效	-6375
亮点	-6376
来进行	-6377
回复	-6378
现已	-6379
食品安全	-6380
工作室	-6381
▁City	-6382
▁vers	-6383
▁cri	-6384
冬奥	-6385
巩固	-6386
区块链	-6387
工程施工	-6388
节点	-6389
牛皮癣患者	-6390
▁int	-6391
商店	-6392
▁Comm	-6393
可以用	-6394
谢谢	-6395
未经	-6396
负载	-6397
▁products	-6398
酒精	-6399
出现的	-6400
等多个	-6401
为本	-6402
ott	-6403
发生的	-6404
去了	-6405
▁pr	-6406
yl	-6407
披露	-6408
火箭	-6409
兴奋	-6410
▁value	-6411
一等奖	-6412
浪漫	-6413
目的是	-6414
信念	-6415
的合作	-6416
▁ben	-6417
级别	-6418
聚乙烯	-6419
转子	-6420
▁page	-6421
上年	-6422
皮损	-6423
你会	-6424
十一	-6425
▁says	-6426
可以让	-6427
ived	-6428
东部	-6429
领先的	-6430
著名的	-6431
首个	-6432
▁Un	-6433
悬浮	-6434
类别	-6435
会议室	-6436
保安	-6437
09	-6438
Cl	-6439
的重要性	-6440
并于	-6441
播出	-6442
▁along	-6443
饭店	-6444
▁--	-6445
乡镇	-6446
承认	-6447
年在	-6448
▁sol	-6449
社会的	-6450
写作	-6451
冒险	-6452
搜索引擎	-6453
人心	-6454
▁allow	-6455
管理人员	-6456
源于	-6457
ched	-6458
较小	-6459
设备和	-6460
线条	-6461
信息技术	-6462
就需要	-6463
org	-6464
条款	-6465
热水器	-6466
影响到	-6467
昨日	-6468
性能好	-6469
拉斯	-6470
,8	-6471
-8	-6472
▁control	-6473
一个月	-6474
油漆	-6475
ava	-6476
得知	-6477
开通	-6478
▁2021	-6479
utes	-6480
将来	-6481
马来西亚	-6482
高科技	-6483
诞生	-6484
事务所	-6485
塞尔	-6486
客户提供	-6487
应该是	-6488
步行	-6489
店铺	-6490
风扇	-6491
备受	-6492
留意	-6493
社会主义	-6494
大奖	-6495
收录	-6496
法律法规	-6497
▁check	-6498
self	-6499
▁across	-6500
肠道	-6501
纪律	-6502
▁prac	-6503
Phone	-6504
潮湿	-6505
广泛用于	-6506
设计和	-6507
领取	-6508
将成为	-6509
尤文	-6510
为例	-6511
当今	-6512
还包括	-6513
ying	-6514
湖南省	-6515
投诉	-6516
同行	-6517
▁might	-6518
5)	-6519
的空间	-6520
变压器	-6521
大战	-6522
经济效益	-6523
▁never	-6524
▁priv	-6525
就不	-6526
变革	-6527
检修	-6528
路面	-6529
投放	-6530
警察	-6531
▁include	-6532
被告	-6533
待遇	-6534
EL	-6535
不忘	-6536
为准	-6537
地坪	-6538
清单	-6539
ills	-6540
▁less	-6541
进行的	-6542
陪伴	-6543
在全球	-6544
会使	-6545
力学	-6546
ajor	-6547
列入	-6548
破门	-6549
▁until	-6550
解决问题	-6551
获悉	-6552
体制	-6553
人气	-6554
无锡	-6555
感恩	-6556
生产和	-6557
尼奥	-6558
平整	-6559
的三	-6560
之旅	-6561
数码	-6562
▁food	-6563
五大	-6564
紧凑	-6565
皇家	-6566
过来	-6567
柔软	-6568
收缩	-6569
平板	-6570
治疗方法	-6571
▁near	-6572
▁u	-6573
管的	-6574
受益	-6575
潮流	-6576
行情	-6577
gether	-6578
产值	-6579
那种	-6580
▁together	-6581
乐趣	-6582
头的	-6583
fect	-6584
心灵	-6585
萝卜	-6586
artment	-6587
SO	-6588
头发	-6589
全国各地	-6590
▁《	-6591
安装在	-6592
配方	-6593
相机	-6594
不管是	-6595
安徽省	-6596
确诊病例	-6597
IF	-6598
日常生活	-6599
西方	-6600
向上	-6601
登陆	-6602
医院的	-6603
积极开展	-6604
型的	-6605
颁奖	-6606
书籍	-6607
的支持	-6608
社会责任	-6609
9、	-6610
管理工作	-6611
ograph	-6612
新一代	-6613
缓慢	-6614
ony	-6615
有关部门	-6616
账号	-6617
越高	-6618
两者	-6619
▁repor	-6620
\\/	-6621
房产	-6622
为期	-6623
脱水	-6624
至上	-6625
ze	-6626
公司拥有	-6627
喜欢的	-6628
越大	-6629
08	-6630
作战	-6631
侵权	-6632
礼物	-6633
放大	-6634
号线	-6635
▁profession	-6636
样子	-6637
ium	-6638
10%	-6639
,9	-6640
头部	-6641
▁Off	-6642
1:	-6643
强度高	-6644
均衡	-6645
碰撞	-6646
一次性	-6647
正常的	-6648
食材	-6649
经济的	-6650
后再	-6651
湖北省	-6652
漫画	-6653
主导	-6654
iam	-6655
的大型	-6656
其中的	-6657
▁American	-6658
应在	-6659
能力强	-6660
▁large	-6661
所需的	-6662
决心	-6663
惊喜	-6664
听取	-6665
境内	-6666
密集	-6667
坚守	-6668
通过了	-6669
过程中的	-6670
梅西	-6671
提出的	-6672
流体	-6673
在校	-6674
让他们	-6675
▁based	-6676
曲线	-6677
自行车	-6678
目前的	-6679
海关	-6680
系统中	-6681
而出	-6682
分会	-6683
一期	-6684
人与	-6685
不适	-6686
一定会	-6687
路径	-6688
▁Count	-6689
蓝色	-6690
当日	-6691
》。\	-6692
又有	-6693
▁Fr	-6694
一层	-6695
管理和	-6696
中山	-6697
拉伸	-6698
多少钱	-6699
春季	-6700
营收	-6701
1.2	-6702
,2019	-6703
的出现	-6704
▁Gu	-6705
沦为	-6706
门将	-6707
ats	-6708
中等	-6709
在北京	-6710
拉开	-6711
▁needs	-6712
月初	-6713
点球	-6714
▁50	-6715
的前提	-6716
的两	-6717
总投资	-6718
教室	-6719
售价	-6720
▁One	-6721
生产企业	-6722
struc	-6723
▁employ	-6724
艰难	-6725
uman	-6726
构造	-6727
子宫	-6728
正规的	-6729
▁United	-6730
▁research	-6731
精力	-6732
▁Par	-6733
<\\/	-6734
一起来	-6735
竟然	-6736
urity	-6737
欧美	-6738
氯化	-6739
搭载	-6740
能力的	-6741
中和	-6742
位的	-6743
密码	-6744
涨幅	-6745
关爱	-6746
come	-6747
ids	-6748
后者	-6749
4000	-6750
Al	-6751
ene	-6752
热线	-6753
京东	-6754
会产生	-6755
理财	-6756
20%	-6757
▁rele	-6758
大楼	-6759
严谨	-6760
大家都	-6761
年以来	-6762
▁job	-6763
填充	-6764
在内的	-6765
小组赛	-6766
学期	-6767
制动	-6768
好友	-6769
unic	-6770
步伐	-6771
电竞	-6772
aterial	-6773
白天	-6774
西甲	-6775
▁light	-6776
kg	-6777
我省	-6778
瑞士	-6779
执照	-6780
lege	-6781
反射	-6782
▁following	-6783
联合国	-6784
详情	-6785
穿着	-6786
有机物	-6787
饱和	-6788
增多	-6789
游乐	-6790
人事	-6791
不住	-6792
水电	-6793
亲自	-6794
13.	-6795
国际化	-6796
多功能	-6797
时代的	-6798
灵魂	-6799
态势	-6800
加以	-6801
残留	-6802
的理念	-6803
▁3.	-6804
行业中	-6805
发泡	-6806
的人才	-6807
彩色	-6808
最高的	-6809
conom	-6810
阿森	-6811
为广大	-6812
推出的	-6813
▁State	-6814
体重	-6815
出血	-6816
来电	-6817
国家标准	-6818
差别	-6819
为人	-6820
的学习	-6821
的风险	-6822
炎症	-6823
让自己	-6824
雄厚	-6825
(\"	-6826
▁complete	-6827
温馨提示	-6828
刑事	-6829
二氧化碳	-6830
洗衣	-6831
outs	-6832
一人	-6833
扩张	-6834
建设项目	-6835
宿舍	-6836
清华	-6837
盲目	-6838
回合	-6839
我觉得	-6840
等方式	-6841
的症状	-6842
内分泌	-6843
段时间	-6844
介绍一下	-6845
80%	-6846
作家	-6847
宠物	-6848
十足	-6849
剂的	-6850
uff	-6851
可以帮助	-6852
700	-6853
强赛	-6854
ui	-6855
南宁	-6856
不动	-6857
实训	-6858
▁2022	-6859
▁National	-6860
环境下	-6861
严禁	-6862
光电	-6863
▁test	-6864
政务	-6865
机等	-6866
完毕	-6867
很高的	-6868
预警	-6869
依照	-6870
文艺	-6871
说话	-6872
ution	-6873
优雅	-6874
等于	-6875
的态度	-6876
夜间	-6877
鸡蛋	-6878
right	-6879
ready	-6880
导航	-6881
▁Rep	-6882
残疾	-6883
懂得	-6884
这样才能	-6885
▁Te	-6886
的风	-6887
***	-6888
一对	-6889
存放	-6890
举报	-6891
联络	-6892
多元化	-6893
葡萄牙	-6894
▁dev	-6895
▁possible	-6896
三级	-6897
和高	-6898
的气	-6899
CT	-6900
降解	-6901
▁enjoy	-6902
:《	-6903
最新的	-6904
武器	-6905
生动	-6906
色谱	-6907
沥青	-6908
事宜	-6909
采暖	-6910
模板	-6911
许多人	-6912
主管部门	-6913
墙体	-6914
队友	-6915
可以选择	-6916
假日	-6917
幅度	-6918
千瓦	-6919
▁Pres	-6920
素养	-6921
jects	-6922
年以上	-6923
务实	-6924
乘客	-6925
iting	-6926
在外	-6927
倡导	-6928
提升了	-6929
品的	-6930
▁educ	-6931
学金	-6932
当事人	-6933
洽谈	-6934
MS	-6935
出水	-6936
吸引了	-6937
聚合	-6938
相同的	-6939
列车	-6940
废弃	-6941
特别是在	-6942
augh	-6943
do	-6944
▁stre	-6945
暖气	-6946
复制	-6947
pecial	-6948
忘记	-6949
isc	-6950
一台	-6951
”;	-6952
拼搏	-6953
▁opport	-6954
太平	-6955
▁city	-6956
▁Bro	-6957
丈夫	-6958
▁rest	-6959
空中	-6960
研究员	-6961
我就	-6962
关联	-6963
明的	-6964
▁是	-6965
企业家	-6966
没想到	-6967
成立以来	-6968
▁development	-6969
舒服	-6970
ference	-6971
客人	-6972
,2022	-6973
居家	-6974
却是	-6975
转化为	-6976
ones	-6977
('	-6978
实木	-6979
年开始	-6980
中秋	-6981
党史	-6982
ino	-6983
又是	-6984
gest	-6985
孕妇	-6986
女生	-6987
主人	-6988
给我们	-6989
使用者	-6990
门口	-6991
海港	-6992
谈判	-6993
的天	-6994
误差	-6995
印发	-6996
书面	-6997
帮扶	-6998
感冒	-6999
ered	-7000
61	-7001
油脂	-7002
▁cou	-7003
不断提升	-7004
家庄	-7005
拿下	-7006
服务平台	-7007
典礼	-7008
数十	-7009
熟练	-7010
在选择	-7011
▁fund	-7012
资深	-7013
回顾	-7014
造纸	-7015
编码	-7016
小米	-7017
真是	-7018
转型升级	-7019
如果不	-7020
综艺	-7021
-20	-7022
微量元素	-7023
veral	-7024
墙面	-7025
年级	-7026
连胜	-7027
▁Serv	-7028
▁writ	-7029
den	-7030
区分	-7031
▁video	-7032
▁social	-7033
上半场	-7034
打包	-7035
派出	-7036
▁away	-7037
几点	-7038
留言	-7039
的一切	-7040
etwork	-7041
itor	-7042
mend	-7043
不停	-7044
用量	-7045
值得一提	-7046
ane	-7047
夺得	-7048
守护	-7049
gu	-7050
派遣	-7051
玩法	-7052
不仅是	-7053
动漫	-7054
图形	-7055
CN	-7056
赚钱	-7057
举办的	-7058
看到了	-7059
在家	-7060
过高	-7061
过后	-7062
ham	-7063
管材	-7064
意间	-7065
、3	-7066
参会	-7067
口味	-7068
是通过	-7069
▁understand	-7070
至关	-7071
14.	-7072
高性能	-7073
的了解	-7074
总决赛	-7075
速度快	-7076
停车场	-7077
日内	-7078
中甲	-7079
的可	-7080
缺少	-7081
北部	-7082
有个	-7083
绘画	-7084
英格兰	-7085
商会	-7086
AG	-7087
佛教	-7088
火车	-7089
为我们	-7090
产生了	-7091
海报	-7092
let	-7093
即便	-7094
球队的	-7095
等功能	-7096
▁land	-7097
市区	-7098
组的	-7099
跑道	-7100
历经	-7101
恶劣	-7102
▁Bo	-7103
▁2015	-7104
竣工	-7105
照射	-7106
睡觉	-7107
LO	-7108
电能	-7109
lling	-7110
欢乐	-7111
▁live	-7112
送到	-7113
▁York	-7114
PU	-7115
副院长	-7116
▁focus	-7117
irl	-7118
失望	-7119
拨打	-7120
不及	-7121
里程	-7122
所属	-7123
互联	-7124
94	-7125
这是一	-7126
100%	-7127
▁Go	-7128
片的	-7129
联轴	-7130
背景下	-7131
fer	-7132
有毒	-7133
废物	-7134
饮用	-7135
叶轮	-7136
使用寿命长	-7137
81	-7138
首都	-7139
出色的	-7140
1999	-7141
慰问	-7142
▁camp	-7143
顺序	-7144
电动机	-7145
单纯	-7146
远远	-7147
制备	-7148
尼斯	-7149
▁past	-7150
地域	-7151
ana	-7152
▁pain	-7153
发展和	-7154
ume	-7155
首发	-7156
unch	-7157
不见	-7158
的作品	-7159
这种情况	-7160
为主要	-7161
扶持	-7162
遗憾	-7163
FC	-7164
菩萨	-7165
门的	-7166
友好	-7167
30%	-7168
▁2.	-7169
▁move	-7170
▁key	-7171
这家	-7172
担保	-7173
alf	-7174
码头	-7175
HD	-7176
不可能	-7177
2001	-7178
back	-7179
契机	-7180
试验机	-7181
▁Des	-7182
新一	-7183
严峻	-7184
▁story	-7185
臭氧	-7186
保证了	-7187
how	-7188
-5	-7189
并发	-7190
世界各地	-7191
保级	-7192
我会	-7193
iec	-7194
精益	-7195
害怕	-7196
航班	-7197
皮带	-7198
是用	-7199
92	-7200
港澳	-7201
(4)	-7202
医疗器械	-7203
的大小	-7204
师范大学	-7205
的最	-7206
产物	-7207
叉车	-7208
▁"1、	-7209
型企业	-7210
没有任何	-7211
从小	-7212
处理器	-7213
urope	-7214
邮政	-7215
▁ele	-7216
有益	-7217
一带一路	-7218
方可	-7219
曾在	-7220
兰州	-7221
恒大	-7222
复印件	-7223
宣告	-7224
▁Che	-7225
160	-7226
构件	-7227
简便	-7228
以其	-7229
弹簧	-7230
林业	-7231
力争	-7232
笔记	-7233
高强度	-7234
需求的	-7235
▁join	-7236
▁industry	-7237
9001	-7238
-12	-7239
信息的	-7240
广州队	-7241
业有限公司	-7242
内置	-7243
充分利用	-7244
▁left	-7245
切削	-7246
人性	-7247
经费	-7248
aper	-7249
光源	-7250
月经	-7251
▁tem	-7252
产业化	-7253
西藏	-7254
外援	-7255
对抗	-7256
enn	-7257
阿森纳	-7258
器官	-7259
收取	-7260
热的	-7261
▁far	-7262
▁wee	-7263
生育	-7264
抑郁	-7265
专业化	-7266
南部	-7267
隐私	-7268
中共	-7269
ager	-7270
几率	-7271
▁house	-7272
二等奖	-7273
澳洲	-7274
香气	-7275
3%	-7276
总量	-7277
IG	-7278
饮水	-7279
亚洲杯	-7280
戏剧	-7281
ches	-7282
一生	-7283
修正	-7284
形成的	-7285
他是	-7286
传说	-7287
下半场	-7288
博览会	-7289
十八	-7290
阿拉	-7291
赋予	-7292
石英	-7293
重庆市	-7294
交互	-7295
身为	-7296
▁origin	-7297
ttp	-7298
▁learn	-7299
结晶	-7300
塑造	-7301
也为	-7302
给我	-7303
rew	-7304
烦恼	-7305
让大家	-7306
▁non	-7307
就医	-7308
不上	-7309
严格的	-7310
▁series	-7311
重量轻	-7312
90%	-7313
▁type	-7314
等各种	-7315
增添	-7316
调理	-7317
▁code	-7318
周末	-7319
煤矿	-7320
▁times	-7321
下面就	-7322
▁treat	-7323
▁why	-7324
▁sit	-7325
多达	-7326
面部	-7327
游戏的	-7328
在过去	-7329
广州市	-7330
DC	-7331
会造成	-7332
每位	-7333
坚固	-7334
一开始	-7335
▁upd	-7336
跨越	-7337
▁Cor	-7338
职业生涯	-7339
热烈	-7340
东南亚	-7341
急性	-7342
▁News	-7343
世界的	-7344
体现了	-7345
此类	-7346
开发的	-7347
▁table	-7348
阿根	-7349
宽度	-7350
联合会	-7351
灵敏	-7352
等方面的	-7353
福州	-7354
雨水	-7355
选举	-7356
值得一提的是	-7357
上门	-7358
早在	-7359
▁called	-7360
走出	-7361
赛区	-7362
排行	-7363
▁easy	-7364
命令	-7365
战略合作	-7366
转向	-7367
与其	-7368
特色的	-7369
价值的	-7370
随之	-7371
改编	-7372
情节	-7373
春天	-7374
维奇	-7375
是从	-7376
塔尔	-7377
多彩	-7378
ada	-7379
伴随着	-7380
让您	-7381
谈到	-7382
阿根廷	-7383
▁multi	-7384
▁several	-7385
恒温	-7386
底部	-7387
温泉	-7388
的花	-7389
一站式	-7390
切换	-7391
坚持以	-7392
ift	-7393
中心的	-7394
大自然	-7395
彰显	-7396
看了	-7397
▁below	-7398
不断地	-7399
▁course	-7400
适量	-7401
江南	-7402
▁field	-7403
是将	-7404
的手	-7405
推出了	-7406
有色	-7407
抓好	-7408
屋顶	-7409
即时	-7410
大桥	-7411
外墙	-7412
液位	-7413
按钮	-7414
icy	-7415
新华社	-7416
很强的	-7417
▁already	-7418
文献	-7419
tific	-7420
▁Ne	-7421
属性	-7422
样本	-7423
应注意	-7424
复苏	-7425
完美的	-7426
家属	-7427
姓名	-7428
激情	-7429
新老	-7430
的患者	-7431
71	-7432
批评	-7433
寒冷	-7434
金刚	-7435
▁Pol	-7436
有许多	-7437
▁Comp	-7438
▁news	-7439
牛肉	-7440
十四五	-7441
aring	-7442
主要的	-7443
纸箱	-7444
克兰	-7445
▁phot	-7446
▁Mc	-7447
过大	-7448
作文	-7449
越好	-7450
眼镜	-7451
▁Ab	-7452
自主研发	-7453
重组	-7454
对我	-7455
联邦	-7456
但不	-7457
边的	-7458
nal	-7459
▁Aust	-7460
IV	-7461
alif	-7462
立刻	-7463
结构的	-7464
科学的	-7465
走访	-7466
▁esta	-7467
选择了	-7468
一般的	-7469
商用	-7470
微软	-7471
陌生	-7472
公开发	-7473
阻止	-7474
▁Mon	-7475
两队	-7476
如果有	-7477
退出	-7478
冰箱	-7479
先锋	-7480
从来	-7481
直观	-7482
大学的	-7483
通行	-7484
ising	-7485
irc	-7486
而来	-7487
协商	-7488
TS	-7489
我们需要	-7490
经纪	-7491
的行为	-7492
天地	-7493
ividual	-7494
更快	-7495
区内	-7496
解放	-7497
数的	-7498
▁What	-7499
销售额	-7500
期内	-7501
服务业	-7502
聚丙烯	-7503
少女	-7504
来源于	-7505
小镇	-7506
高档	-7507
防潮	-7508
由中国	-7509
硫化	-7510
tary	-7511
既然	-7512
工程建设	-7513
解除	-7514
出战	-7515
生产经营	-7516
▁di	-7517
▁Stud	-7518
退役	-7519
比特	-7520
的一年	-7521
这份	-7522
壮大	-7523
才能够	-7524
也被	-7525
iven	-7526
不必	-7527
的活动	-7528
等因素	-7529
涂装	-7530
低的	-7531
国脚	-7532
不然	-7533
aces	-7534
研究人员	-7535
赛前	-7536
表面的	-7537
比利	-7538
的力量	-7539
▁major	-7540
精致	-7541
它可以	-7542
自来	-7543
中级	-7544
ront	-7545
伟大	-7546
而已	-7547
公务员	-7548
展示了	-7549
大棚	-7550
陕西省	-7551
阻力	-7552
Stack	-7553
职务	-7554
在治疗	-7555
将为	-7556
合伙	-7557
第二次	-7558
形容	-7559
作了	-7560
04	-7561
色泽	-7562
民主	-7563
机构的	-7564
什么样的	-7565
▁My	-7566
一只	-7567
功能的	-7568
商城	-7569
玫瑰	-7570
6000	-7571
▁whe	-7572
15.	-7573
患病	-7574
BO	-7575
换热器	-7576
意甲	-7577
调度	-7578
常识	-7579
▁future	-7580
的部分	-7581
仿佛	-7582
▁Sec	-7583
幸运	-7584
管理办法	-7585
可通过	-7586
▁Bar	-7587
tems	-7588
▁government	-7589
▁Park	-7590
▁film	-7591
推行	-7592
rug	-7593
催化剂	-7594
首先要	-7595
结算	-7596
竭诚	-7597
脱落	-7598
韧性	-7599
严格按照	-7600
摄入	-7601
忽略	-7602
PD	-7603
基督	-7604
▁South	-7605
监理	-7606
堪称	-7607
▁space	-7608
要点	-7609
珠宝	-7610
坐落于	-7611
很重要	-7612
的老	-7613
变速	-7614
****	-7615
社保	-7616
理想的	-7617
处理的	-7618
是我国	-7619
外汇	-7620
若干	-7621
ging	-7622
吃饭	-7623
职位	-7624
▁range	-7625
我也	-7626
anies	-7627
下游	-7628
题材	-7629
▁tre	-7630
注册资本	-7631
并通过	-7632
程度的	-7633
hod	-7634
额定	-7635
挤压	-7636
公正	-7637
比重	-7638
石家庄	-7639
爱国	-7640
希望能	-7641
实质	-7642
强烈的	-7643
ources	-7644
耐热	-7645
使用时	-7646
监察	-7647
十五	-7648
硅胶	-7649
各种各	-7650
比较好	-7651
IA	-7652
二维	-7653
筛选	-7654
VR	-7655
浸泡	-7656
的长	-7657
房价	-7658
▁perfect	-7659
永久	-7660
化和	-7661
外出	-7662
突发	-7663
行业发展	-7664
▁environ	-7665
叫做	-7666
较少	-7667
如果没有	-7668
▁That	-7669
】\	-7670
务必	-7671
云计算	-7672
的双	-7673
的健康	-7674
▁having	-7675
之地	-7676
▁won	-7677
Ar	-7678
指导下	-7679
量大	-7680
▁ens	-7681
排名第	-7682
中新	-7683
主要包括	-7684
名额	-7685
血糖	-7686
rap	-7687
圣诞	-7688
▁Per	-7689
不懈	-7690
面料	-7691
!”\	-7692
生产基地	-7693
obile	-7694
道理	-7695
稳步	-7696
简洁	-7697
是国内	-7698
气泡	-7699
-4	-7700
uary	-7701
PA	-7702
▁ite	-7703
两侧	-7704
▁ent	-7705
的建设	-7706
ey	-7707
转动	-7708
师资	-7709
颁发	-7710
▁interes	-7711
质量和	-7712
运营商	-7713
建筑工程	-7714
▁本	-7715
已被	-7716
签证	-7717
在前	-7718
公布了	-7719
900	-7720
▁night	-7721
冷藏	-7722
成本低	-7723
届中国	-7724
度高	-7725
无毒	-7726
路灯	-7727
分辨率	-7728
▁Ge	-7729
职业技术	-7730
专属	-7731
hop	-7732
nYou	-7733
▁young	-7734
新颖	-7735
珍惜	-7736
愿景	-7737
油墨	-7738
ief	-7739
高效的	-7740
宗教	-7741
错过	-7742
冷库	-7743
人人	-7744
机体	-7745
也不能	-7746
电动车	-7747
中超联赛	-7748
高分子	-7749
詹姆斯	-7750
烟气	-7751
登场	-7752
波纹	-7753
也不是	-7754
遭受	-7755
▁personal	-7756
▁elect	-7757
均有	-7758
▁women	-7759
tr	-7760
05	-7761
全场	-7762
在进行	-7763
侵犯	-7764
球的	-7765
年内	-7766
nFor	-7767
初中	-7768
也需要	-7769
细致	-7770
隐藏	-7771
气动	-7772
不仅可以	-7773
福建省	-7774
蓄电池	-7775
辛苦	-7776
ember	-7777
rite	-7778
海上	-7779
秋季	-7780
调控	-7781
的游戏	-7782
▁compe	-7783
相继	-7784
擅长	-7785
之内	-7786
如同	-7787
▁effec	-7788
也让	-7789
▁Med	-7790
书画	-7791
▁point	-7792
在我国	-7793
记载	-7794
nm	-7795
投产	-7796
电镀	-7797
结论	-7798
转入	-7799
不妨	-7800
▁side	-7801
UN	-7802
哈尔滨	-7803
SD	-7804
▁money	-7805
累积	-7806
既有	-7807
的性能	-7808
冠状	-7809
哲学	-7810
发光	-7811
前行	-7812
功夫	-7813
从未	-7814
完结	-7815
anks	-7816
abor	-7817
▁comes	-7818
种种	-7819
标志着	-7820
来临	-7821
塞罗	-7822
车主	-7823
▁pack	-7824
)》	-7825
灯具	-7826
在其	-7827
对人体	-7828
体育场	-7829
▁review	-7830
试图	-7831
ista	-7832
承接	-7833
辣椒	-7834
MC	-7835
位居	-7836
枢纽	-7837
ients	-7838
四季	-7839
人民群众	-7840
编号	-7841
等情况	-7842
后面	-7843
▁Dep	-7844
原子	-7845
▁building	-7846
营运	-7847
激烈的	-7848
产业园	-7849
▁share	-7850
说是	-7851
技术服务	-7852
维度	-7853
▁report	-7854
非常重要	-7855
客运	-7856
col	-7857
厕所	-7858
uk	-7859
选项	-7860
动员	-7861
的开	-7862
▁Gl	-7863
做出了	-7864
杰出	-7865
▁makes	-7866
93	-7867
和工作	-7868
tered	-7869
移植	-7870
爱好者	-7871
选拔	-7872
nov	-7873
▁cost	-7874
促使	-7875
命中	-7876
共创	-7877
龙井	-7878
被评为	-7879
票房	-7880
以确保	-7881
病变	-7882
单位的	-7883
同类	-7884
授课	-7885
西兰	-7886
配有	-7887
斯卡	-7888
白癜风的治疗	-7889
可爱	-7890
年起	-7891
▁benef	-7892
平常	-7893
irm	-7894
马尔	-7895
▁bring	-7896
pen	-7897
间隙	-7898
北美	-7899
法治	-7900
聊天	-7901
预告	-7902
的使用寿命	-7903
三维	-7904
喷雾	-7905
走势	-7906
器和	-7907
战术	-7908
采样	-7909
生产工艺	-7910
视角	-7911
的各种	-7912
pril	-7913
效果好	-7914
在地	-7915
一日	-7916
opy	-7917
oud	-7918
box	-7919
ilt	-7920
遭到	-7921
经历了	-7922
防御	-7923
上演	-7924
医护	-7925
腐蚀性	-7926
▁require	-7927
隆重	-7928
剧中	-7929
全面的	-7930
▁content	-7931
硬化	-7932
展出	-7933
遍布	-7934
220	-7935
▁Har	-7936
研讨会	-7937
打入	-7938
达标	-7939
▁product	-7940
▁}	-7941
ober	-7942
网络安全	-7943
男孩	-7944
▁Our	-7945
在我们	-7946
ci	-7947
届时	-7948
摆脱	-7949
职场	-7950
减排	-7951
1-0	-7952
专业从事	-7953
热处理	-7954
tens	-7955
国的	-7956
智能手机	-7957
像是	-7958
Exchange	-7959
砂浆	-7960
详细的	-7961
文化和	-7962
某个	-7963
为进一步	-7964
存款	-7965
的抗	-7966
高兴	-7967
外贸	-7968
师傅	-7969
16.	-7970
微波	-7971
1200	-7972
____	-7973
会被	-7974
的功效	-7975
rame	-7976
及时的	-7977
导致的	-7978
▁hold	-7979
▁North	-7980
感染者	-7981
岁月	-7982
轨道交通	-7983
▁contact	-7984
▁pati	-7985
光泽	-7986
制作的	-7987
服务于	-7988
失业	-7989
各项工作	-7990
上网	-7991
中午	-7992
▁Europe	-7993
▁bas	-7994
见到	-7995
随机	-7996
饮用水	-7997
▁flo	-7998
创造了	-7999
Fi	-8000
纪委	-8001
等产品	-8002
有所帮助	-8003
的城市	-8004
篇文章	-8005
iled	-8006
▁contain	-8007
中科	-8008
10、	-8009
年中国	-8010
锁定	-8011
目前已	-8012
的速度	-8013
尤为	-8014
isk	-8015
湾区	-8016
氨基	-8017
▁fav	-8018
牵头	-8019
刀具	-8020
该产品	-8021
▁Ju	-8022
▁Ed	-8023
空压机	-8024
古典	-8025
可靠的	-8026
幕墙	-8027
感和	-8028
南昌	-8029
门票	-8030
lin	-8031
CR	-8032
社会各界	-8033
积金	-8034
湖人	-8035
生化	-8036
ummer	-8037
是为	-8038
1-2	-8039
产业的	-8040
仅供	-8041
-6	-8042
水准	-8043
▁Her	-8044
中所	-8045
积分榜	-8046
人体的	-8047
并以	-8048
重金属	-8049
氧气	-8050
反弹	-8051
董事会	-8052
,2018	-8053
▁2014	-8054
▁individual	-8055
制成的	-8056
▁seem	-8057
主持人	-8058
汇聚	-8059
说过这样	-8060
少量	-8061
多多	-8062
的国家	-8063
▁charac	-8064
行业协会	-8065
tar	-8066
接入	-8067
说到	-8068
央视	-8069
化疗	-8070
看法	-8071
igital	-8072
是没有	-8073
特斯	-8074
工程机械	-8075
内容的	-8076
ination	-8077
脱硫	-8078
万亿元	-8079
小时内	-8080
▁Sep	-8081
注射	-8082
nces	-8083
万欧元	-8084
怎样的	-8085
▁detail	-8086
也比较	-8087
家乡	-8088
次于	-8089
安静	-8090
试管婴儿	-8091
恶化	-8092
调味	-8093
足联	-8094
ols	-8095
安心	-8096
修行	-8097
CD	-8098
水和	-8099
▁done	-8100
希腊	-8101
▁comb	-8102
轻质	-8103
钢琴	-8104
▁invol	-8105
严肃	-8106
将被	-8107
广泛应用	-8108
HE	-8109
用了	-8110
站点	-8111
不容	-8112
等人	-8113
eleb	-8114
栽培	-8115
但他	-8116
的一项	-8117
积极的	-8118
金牌	-8119
fl	-8120
▁Pre	-8121
工程项目	-8122
出版社	-8123
▁When	-8124
出一	-8125
因其	-8126
演绎	-8127
放电	-8128
与中国	-8129
HS	-8130
德甲	-8131
▁known	-8132
酸盐	-8133
海鲜	-8134
道的	-8135
下半年	-8136
导电	-8137
文旅	-8138
外伤	-8139
发改	-8140
必不可	-8141
按摩	-8142
▁enter	-8143
的确	-8144
众所	-8145
青海	-8146
脉冲	-8147
开业	-8148
高血压	-8149
渴望	-8150
ides	-8151
▁ever	-8152
但是在	-8153
这两个	-8154
托盘	-8155
旗舰	-8156
是怎么	-8157
安全隐患	-8158
▁often	-8159
新年	-8160
外科	-8161
雕刻	-8162
自从	-8163
化学品	-8164
以内	-8165
入住	-8166
划分	-8167
民警	-8168
注塑	-8169
▁getting	-8170
我要	-8171
排在	-8172
▁early	-8173
更改	-8174
▁occ	-8175
处长	-8176
门诊	-8177
▁remain	-8178
尔夫	-8179
MV	-8180
概率	-8181
创新创业	-8182
买卖	-8183
采访时	-8184
ully	-8185
verage	-8186
StackExchange	-8187
勇士	-8188
内存	-8189
家企业	-8190
尔斯	-8191
汽油	-8192
了解了	-8193
呼吁	-8194
前三	-8195
警告	-8196
周知	-8197
氨酸	-8198
2%	-8199
▁。	-8200
的颜色	-8201
▁invest	-8202
平米	-8203
摩托	-8204
也没	-8205
所谓的	-8206
客户端	-8207
缴费	-8208
长达	-8209
共产党	-8210
不合格	-8211
国防	-8212
靠近	-8213
花卉	-8214
万辆	-8215
▁material	-8216
冲压	-8217
科技大学	-8218
上帝	-8219
举行的	-8220
urther	-8221
和水	-8222
有力的	-8223
130	-8224
学的	-8225
极其	-8226
第八	-8227
的一致	-8228
ww	-8229
在这种	-8230
▁technology	-8231
细腻	-8232
VID	-8233
▁\\	-8234
光纤	-8235
nRe	-8236
格栅	-8237
热刺	-8238
在线观看	-8239
面包	-8240
▁specific	-8241
瓷砖	-8242
ст	-8243
表现为	-8244
陪同	-8245
还没	-8246
外表	-8247
ystems	-8248
不吃	-8249
▁started	-8250
上课	-8251
在本	-8252
其他的	-8253
和中国	-8254
mg	-8255
淀粉	-8256
耶稣	-8257
食堂	-8258
长大	-8259
阳性	-8260
音频	-8261
工作经验	-8262
前列	-8263
赛的	-8264
▁five	-8265
aul	-8266
ikip	-8267
副作用	-8268
见的	-8269
高频	-8270
集训	-8271
▁kind	-8272
合计	-8273
的投资	-8274
nder	-8275
企业管理	-8276
感的	-8277
now	-8278
个人的	-8279
на	-8280
,”	-8281
著作权	-8282
中最	-8283
时间和	-8284
year	-8285
有些人	-8286
nim	-8287
约定	-8288
榜单	-8289
演练	-8290
疗效	-8291
通过对	-8292
原油	-8293
受损	-8294
OT	-8295
丽的	-8296
▁lim	-8297
▁single	-8298
从中	-8299
大方	-8300
率高	-8301
01	-8302
和使用	-8303
▁media	-8304
ikipedia	-8305
教育的	-8306
hoto	-8307
星级	-8308
流畅	-8309
沙发	-8310
▁repres	-8311
太大	-8312
顶尖	-8313
质量管理体系	-8314
▁Center	-8315
位列	-8316
护肤	-8317
ser	-8318
月中	-8319
▁为	-8320
▁Rec	-8321
号召	-8322
信仰	-8323
追踪	-8324
带头	-8325
▁Af	-8326
重返	-8327
扭矩	-8328
tire	-8329
oman	-8330
不一样的	-8331
rain	-8332
▁40	-8333
的那	-8334
股市	-8335
▁please	-8336
十九	-8337
各方	-8338
柔性	-8339
360	-8340
操作简单	-8341
▁short	-8342
官员	-8343
就诊	-8344
▁Ser	-8345
日制	-8346
nes	-8347
06	-8348
内在	-8349
reg	-8350
▁soft	-8351
记住	-8352
hers	-8353
租车	-8354
损耗	-8355
会让	-8356
▁offers	-8357
排列	-8358
极具	-8359
短信	-8360
ube	-8361
剩余	-8362
宏观	-8363
斯科	-8364
hic	-8365
ttps	-8366
热电	-8367
rat	-8368
▁//	-8369
place	-8370
科学研究	-8371
irt	-8372
普通的	-8373
卡塔尔	-8374
医保	-8375
tig	-8376
和生活	-8377
加固	-8378
技术与	-8379
为其	-8380
积极参与	-8381
眼前	-8382
海岸	-8383
哪家	-8384
▁brand	-8385
游戏中	-8386
但由于	-8387
▁typ	-8388
余名	-8389
婚礼	-8390
腹泻	-8391
avid	-8392
可供	-8393
的具体	-8394
▁poin	-8395
之上	-8396
实事	-8397
兼容	-8398
例子	-8399
可以使用	-8400
见面	-8401
更能	-8402
▁Do	-8403
▁others	-8404
▁means	-8405
hy	-8406
马拉	-8407
企业发展	-8408
手中	-8409
知名度	-8410
▁months	-8411
数据的	-8412
河流	-8413
执业	-8414
拆除	-8415
▁Am	-8416
营业执照	-8417
一件	-8418
传统文化	-8419
ibr	-8420
开创	-8421
一样的	-8422
荧光	-8423
的消息	-8424
事物	-8425
▁enc	-8426
▁docu	-8427
的经营理念	-8428
▁County	-8429
等到	-8430
len	-8431
了对	-8432
勇于	-8433
的组织	-8434
head	-8435
▁der	-8436
金融机构	-8437
体积小	-8438
坐在	-8439
誉为	-8440
ulation	-8441
▁official	-8442
公积金	-8443
ancial	-8444
高精度	-8445
hel	-8446
▁sus	-8447
用手	-8448
福德	-8449
也非常	-8450
空气中	-8451
ored	-8452
nHow	-8453
发扬	-8454
地说	-8455
▁features	-8456
eral	-8457
▁log	-8458
同样的	-8459
▁tour	-8460
ij	-8461
auti	-8462
▁outs	-8463
长城	-8464
供暖	-8465
3.5	-8466
▁Will	-8467
▁close	-8468
繁荣	-8469
水源	-8470
体温	-8471
而成的	-8472
其中包括	-8473
副校长	-8474
小朋友	-8475
ically	-8476
ips	-8477
一直以来	-8478
两国	-8479
亏损	-8480
太空	-8481
新车	-8482
在生产	-8483
作为一个	-8484
▁problem	-8485
乳化	-8486
向前	-8487
isten	-8488
征收	-8489
应聘	-8490
了一种	-8491
▁companies	-8492
算是	-8493
流失	-8494
浏览器	-8495
衔接	-8496
就没有	-8497
▁cr	-8498
造成了	-8499
▁Inc	-8500
03	-8501
专业技术	-8502
RS	-8503
一半	-8504
一座	-8505
▁sug	-8506
深深	-8507
营业收入	-8508
个小时	-8509
可以直接	-8510
osed	-8511
完成后	-8512
oma	-8513
一般在	-8514
第二阶段	-8515
的新型	-8516
克力	-8517
成套	-8518
繁殖	-8519
的压力	-8520
联轴器	-8521
候选	-8522
做得	-8523
拍照	-8524
▁artic	-8525
尽早	-8526
一部	-8527
伊朗	-8528
人为本	-8529
众所周知	-8530
出厂	-8531
ilities	-8532
iles	-8533
▁final	-8534
17.	-8535
的优点	-8536
倒数	-8537
▁war	-8538
批量	-8539
央行	-8540
人们对	-8541
▁dem	-8542
恐怖	-8543
这意味着	-8544
直至	-8545
了中国	-8546
▁iden	-8547
学子	-8548
蓬勃	-8549
▁challe	-8550
▁Cent	-8551
呈现出	-8552
又能	-8553
前提	-8554
编剧	-8555
▁history	-8556
角球	-8557
unities	-8558
在上海	-8559
神奇	-8560
散热器	-8561
▁mess	-8562
效能	-8563
美味	-8564
▁account	-8565
会给	-8566
除湿	-8567
就不会	-8568
▁Sm	-8569
梳理	-8570
cted	-8571
并且在	-8572
博会	-8573
拆卸	-8574
该如何	-8575
witter	-8576
智能制造	-8577
我不	-8578
满满	-8579
总计	-8580
▁sy	-8581
仅次于	-8582
▁hig	-8583
螺纹	-8584
极限	-8585
▁added	-8586
▁thing	-8587
高雄	-8588
宾馆	-8589
▁low	-8590
罚款	-8591
一直是	-8592
住院	-8593
年限	-8594
手法	-8595
云南省	-8596
尔特	-8597
再行	-8598
十字	-8599
系统和	-8600
中标	-8601
重建	-8602
发生器	-8603
他表示	-8604
同比下降	-8605
▁body	-8606
rict	-8607
铺设	-8608
监会	-8609
看好	-8610
跟随	-8611
la	-8612
▁mean	-8613
有一定	-8614
怀疑	-8615
搬家	-8616
这座	-8617
终身	-8618
▁Group	-8619
时要	-8620
替补	-8621
护士	-8622
两名	-8623
规范化	-8624
已经在	-8625
抗疫	-8626
语文	-8627
来自于	-8628
▁strong	-8629
长安	-8630
的研发	-8631
sw	-8632
部队	-8633
nWhat	-8634
地处	-8635
吸烟	-8636
荣耀	-8637
校企	-8638
▁据	-8639
民用	-8640
平凡	-8641
间接	-8642
▁self	-8643
Google	-8644
关注的	-8645
只不过	-8646
▁anal	-8647
挂牌	-8648
轻轻	-8649
国家和地区	-8650
合作的	-8651
元的	-8652
组成员	-8653
合作关系	-8654
机油	-8655
rag	-8656
可实现	-8657
lent	-8658
消防安全	-8659
加剧	-8660
名列	-8661
有意	-8662
所得税	-8663
▁Oct	-8664
恶性	-8665
编写	-8666
▁concer	-8667
先行	-8668
短视频	-8669
指引	-8670
ams	-8671
酸性	-8672
www	-8673
清新	-8674
▁example	-8675
促销	-8676
处理设备	-8677
电极	-8678
▁quick	-8679
因此在	-8680
相对于	-8681
安防	-8682
我认为	-8683
▁doesn	-8684
一个新的	-8685
香味	-8686
▁commit	-8687
不低于	-8688
门槛	-8689
立柱	-8690
工作效率	-8691
▁La	-8692
乌克兰	-8693
客厅	-8694
流量计	-8695
我希望	-8696
ternet	-8697
4,	-8698
担忧	-8699
手的	-8700
迎战	-8701
烘干机	-8702
重要作用	-8703
这个时候	-8704
豆腐	-8705
负面	-8706
正面	-8707
不高	-8708
客户需求	-8709
料的	-8710
端的	-8711
致辞	-8712
独家	-8713
▁Mo	-8714
▁private	-8715
蜂蜜	-8716
酸碱	-8717
恋爱	-8718
nAs	-8719
平台的	-8720
优美	-8721
征求	-8722
山东泰山	-8723
();\	-8724
ura	-8725
cept	-8726
省份	-8727
聚合物	-8728
风电	-8729
更进一步	-8730
OL	-8731
限度	-8732
▁hours	-8733
医疗机构	-8734
,12	-8735
副总裁	-8736
诠释	-8737
从此	-8738
之日起	-8739
2:	-8740
副会长	-8741
医用	-8742
节能环保	-8743
防锈	-8744
10000	-8745
▁West	-8746
江西省	-8747
中含有	-8748
山水	-8749
牢记	-8750
▁International	-8751
按时	-8752
的社会	-8753
加深	-8754
气质	-8755
现将	-8756
展望	-8757
无效	-8758
▁deb	-8759
pected	-8760
▁April	-8761
模范	-8762
越多	-8763
▁Qu	-8764
个别	-8765
成立了	-8766
锂电池	-8767
高等教育	-8768
卫视	-8769
0.1	-8770
真理	-8771
接线	-8772
-11	-8773
主要由	-8774
autiful	-8775
▁El	-8776
那就	-8777
▁)	-8778
市级	-8779
Ad	-8780
名言	-8781
困境	-8782
出资	-8783
天空	-8784
步入	-8785
华南	-8786
阳台	-8787
讲究	-8788
倾向	-8789
▁friends	-8790
强势	-8791
老师的	-8792
iod	-8793
亚太	-8794
激动	-8795
光谱	-8796
让孩子	-8797
党委副书记	-8798
打磨	-8799
▁March	-8800
调解	-8801
近年	-8802
ecu	-8803
不存在	-8804
有很大的	-8805
标记	-8806
两天	-8807
key	-8808
简化	-8809
一块	-8810
已在	-8811
约翰	-8812
真空泵	-8813
的可能性	-8814
bum	-8815
成都市	-8816
台中	-8817
ournal	-8818
饱满	-8819
明亮	-8820
了一些	-8821
立方米	-8822
aut	-8823
的人员	-8824
脚手	-8825
off	-8826
可惜	-8827
底线	-8828
淘宝	-8829
ngth	-8830
家园	-8831
▁ev	-8832
入境	-8833
的结构	-8834
中国女足	-8835
把它	-8836
▁Aug	-8837
气流	-8838
不断发展	-8839
冷水	-8840
穿越	-8841
OM	-8842
开学	-8843
▁author	-8844
ued	-8845
▁price	-8846
▁later	-8847
、5	-8848
原有	-8849
绿茶	-8850
nTh	-8851
栏目	-8852
班级	-8853
atural	-8854
入围	-8855
最多的	-8856
▁Fin	-8857
一方	-8858
And	-8859
的总	-8860
红酒	-8861
第二个	-8862
自助	-8863
RC	-8864
和企业	-8865
duce	-8866
中小学	-8867
吃的	-8868
log	-8869
近几年	-8870
供热	-8871
)(	-8872
孵化	-8873
▁appear	-8874
若是	-8875
英镑	-8876
不敌	-8877
教育局	-8878
复工	-8879
开始了	-8880
更加的	-8881
amb	-8882
行走	-8883
将对	-8884
分成	-8885
发病率	-8886
资源的	-8887
▁customers	-8888
6%	-8889
人造	-8890
urch	-8891
▁staff	-8892
new	-8893
回转	-8894
拼接	-8895
多媒体	-8896
07	-8897
为目标	-8898
yc	-8899
在未来	-8900
的前提下	-8901
这场比赛	-8902
18.	-8903
伺服	-8904
▁bar	-8905
▁discuss	-8906
专业生产	-8907
变成了	-8908
ands	-8909
矿业	-8910
量身	-8911
巴塞罗	-8912
1998	-8913
安置	-8914
教研	-8915
伟大的	-8916
▁break	-8917
定时	-8918
mes	-8919
将近	-8920
办事处	-8921
原因是	-8922
高新区	-8923
▁user	-8924
援助	-8925
这不	-8926
idd	-8927
别人的	-8928
▁issues	-8929
史上	-8930
我们也	-8931
找到了	-8932
书写	-8933
▁ener	-8934
upp	-8935
挤出	-8936
过渡	-8937
得出	-8938
▁п	-8939
02	-8940
看似	-8941
分析师	-8942
除尘器	-8943
▁took	-8944
轻易	-8945
中央空调	-8946
用人单位	-8947
一定要注意	-8948
建设和	-8949
ably	-8950
AB	-8951
备战	-8952
全体员工	-8953
无缝钢管	-8954
冠状病毒	-8955
军人	-8956
注目	-8957
督导	-8958
▁clean	-8959
开花	-8960
半决赛	-8961
::	-8962
了一场	-8963
▁enough	-8964
某某	-8965
▁text	-8966
年后	-8967
环境污染	-8968
的一次	-8969
350	-8970
英寸	-8971
间隔	-8972
赋能	-8973
2025	-8974
判决	-8975
总会	-8976
审视	-8977
itc	-8978
angu	-8979
县委	-8980
▁games	-8981
筹备	-8982
▁events	-8983
在我	-8984
70%	-8985
预制	-8986
ara	-8987
并为	-8988
▁web	-8989
▁publ	-8990
省委	-8991
螺丝	-8992
光明	-8993
中华民族	-8994
逆转	-8995
▁2010	-8996
巴塞罗那	-8997
输送机	-8998
风雨	-8999
打印机	-9000
燃油	-9001
生殖	-9002
fic	-9003
▁doing	-9004
始终坚持	-9005
精湛	-9006
风口	-9007
为导向	-9008
ither	-9009
▁result	-9010
蛋糕	-9011
oring	-9012
也是一	-9013
还是要	-9014
车身	-9015
的处理	-9016
▁Reg	-9017
长远	-9018
在今年	-9019
新赛季	-9020
有关规定	-9021
的球队	-9022
各式	-9023
季后	-9024
稀释	-9025
阻碍	-9026
电动汽车	-9027
自来水	-9028
▁due	-9029
失误	-9030
粗糙	-9031
符号	-9032
座谈会	-9033
原件	-9034
毕业于	-9035
▁email	-9036
▁song	-9037
一一	-9038
简要	-9039
合力	-9040
畅通	-9041
依次	-9042
uild	-9043
非常好	-9044
电厂	-9045
并提供	-9046
ians	-9047
▁office	-9048
正如	-9049
的因素	-9050
PH	-9051
不对	-9052
▁given	-9053
喜剧	-9054
付款	-9055
古老	-9056
佛山	-9057
指令	-9058
疯狂	-9059
科学与	-9060
款式	-9061
脚手架	-9062
ufact	-9063
比如说	-9064
经济学	-9065
学费	-9066
水库	-9067
物质的	-9068
记者从	-9069
凤凰	-9070
你知道	-9071
不佳	-9072
犯规	-9073
▁unique	-9074
估值	-9075
文本	-9076
水晶	-9077
▁pict	-9078
的整体	-9079
头痛	-9080
般的	-9081
拉力	-9082
网址	-9083
长久	-9084
流动性	-9085
▁与	-9086
和大	-9087
市场竞争	-9088
ра	-9089
pre	-9090
▁States	-9091
天天	-9092
▁once	-9093
tee	-9094
位移	-9095
气息	-9096
志愿服务	-9097
一看	-9098
今天的	-9099
细分	-9100
▁Day	-9101
截至目前	-9102
acy	-9103
▁performance	-9104
在了	-9105
po	-9106
疫情影响	-9107
共识	-9108
愉快	-9109
土耳	-9110
most	-9111
umb	-9112
的其他	-9113
▁deal	-9114
出演	-9115
精彩的	-9116
▁press	-9117
▁minutes	-9118
求职	-9119
pping	-9120
美洲	-9121
以来的	-9122
因子	-9123
91	-9124
碳酸	-9125
▁Christ	-9126
仍在	-9127
笔者	-9128
仍有	-9129
▁purcha	-9130
首要	-9131
对我们	-9132
当地时间	-9133
财政部	-9134
钻石	-9135
保温材料	-9136
▁January	-9137
精选	-9138
CH	-9139
▁simple	-9140
和生产	-9141
网站建设	-9142
展厅	-9143
进去	-9144
aus	-9145
▁High	-9146
创新的	-9147
▁2013	-9148
业务的	-9149
需要在	-9150
直线	-9151
▁age	-9152
剧院	-9153
一般为	-9154
atur	-9155
EO	-9156
伸缩	-9157
分支	-9158
大家在	-9159
▁among	-9160
放射	-9161
研磨	-9162
Wikipedia	-9163
容积	-9164
tage	-9165
额外	-9166
然后再	-9167
烹饪	-9168
市值	-9169
土耳其	-9170
次的	-9171
在中	-9172
变动	-9173
质疑	-9174
▁Sha	-9175
月至	-9176
6-	-9177
是一家集	-9178
下方	-9179
学习的	-9180
排行榜	-9181
▁date	-9182
▁begin	-9183
你要	-9184
{\	-9185
▁talk	-9186
东风	-9187
做为	-9188
ert	-9189
善于	-9190
解析	-9191
辛辣	-9192
比特币	-9193
操作系统	-9194
对照	-9195
敬业	-9196
adem	-9197
..\	-9198
一起来看看	-9199
组长	-9200
南北	-9201
头球	-9202
▁These	-9203
利用率	-9204
矿石	-9205
失眠	-9206
的无	-9207
理工大学	-9208
华人	-9209
趣味	-9210
地块	-9211
蔓延	-9212
宣传片	-9213
非常重要的	-9214
是如何	-9215
机房	-9216
冷却塔	-9217
意志	-9218
的文化	-9219
忠诚	-9220
▁clear	-9221
台南	-9222
orks	-9223
得多	-9224
讲述了	-9225
严重影响	-9226
的热情	-9227
Com	-9228
决定了	-9229
脸上	-9230
uts	-9231
谷歌	-9232
都将	-9233
断裂	-9234
针对性	-9235
专业知识	-9236
▁House	-9237
工信	-9238
的艺术	-9239
▁miss	-9240
中毒	-9241
生锈	-9242
在上	-9243
透气	-9244
动脉	-9245
▁connec	-9246
相处	-9247
▁provides	-9248
威尔	-9249
▁sound	-9250
▁prom	-9251
教会	-9252
图纸	-9253
▁econom	-9254
ault	-9255
机动车	-9256
mail	-9257
▁aud	-9258
时应	-9259
工程技术	-9260
赛程	-9261
检测仪	-9262
全过程	-9263
使用了	-9264
FT	-9265
▁true	-9266
全区	-9267
浓缩	-9268
中国人民	-9269
出具	-9270
污水处理设备	-9271
▁results	-9272
机能	-9273
大面积	-9274
租金	-9275
▁address	-9276
温州	-9277
异味	-9278
执导	-9279
MI	-9280
服务商	-9281
仅为	-9282
专线	-9283
南通	-9284
细胞的	-9285
等一系列	-9286
ague	-9287
▁UK	-9288
最重要	-9289
▁version	-9290
人间	-9291
年纪	-9292
工业和	-9293
▁Austral	-9294
击中	-9295
培训班	-9296
秉持	-9297
迄今	-9298
酰胺	-9299
reate	-9300
▁property	-9301
NG	-9302
▁wa	-9303
reet	-9304
▁Part	-9305
文档	-9306
本场	-9307
充分的	-9308
政协	-9309
短短	-9310
▁training	-9311
5,	-9312
iPhone	-9313
粘结	-9314
▁в	-9315
写字	-9316
产品有	-9317
的球员	-9318
8%	-9319
test	-9320
数位	-9321
什么时候	-9322
议题	-9323
全日制	-9324
展览会	-9325
骑士	-9326
新人	-9327
tra	-9328
总承包	-9329
撰写	-9330
抗体	-9331
▁Google	-9332
▁Health	-9333
减小	-9334
情怀	-9335
是国家	-9336
ception	-9337
祝贺	-9338
部门的	-9339
才可以	-9340
可以说是	-9341
紧紧	-9342
总之	-9343
公布的	-9344
▁fore	-9345
▁exc	-9346
手游	-9347
处在	-9348
光线	-9349
双向	-9350
化解	-9351
重型	-9352
▁yet	-9353
勇敢	-9354
桃园	-9355
定点	-9356
商贸	-9357
开了	-9358
胶带	-9359
▁atta	-9360
病症	-9361
稳健	-9362
产品和	-9363
企业文化	-9364
~\	-9365
我们应该	-9366
,11	-9367
、2	-9368
评分	-9369
副主席	-9370
必须在	-9371
tember	-9372
墨西	-9373
的有	-9374
督促	-9375
预订	-9376
face	-9377
▁member	-9378
瑞典	-9379
服饰	-9380
工程的	-9381
好转	-9382
▁Feb	-9383
海拔	-9384
展现了	-9385
resh	-9386
肥料	-9387
另一种	-9388
pm	-9389
范畴	-9390
差不多	-9391
tivity	-9392
的爱	-9393
▁TV	-9394
意识到	-9395
作为一种	-9396
发电机组	-9397
有必要	-9398
不敢	-9399
pper	-9400
-30	-9401
输送带	-9402
▁least	-9403
助推	-9404
外资	-9405
咨询服务	-9406
劳动力	-9407
优于	-9408
买家	-9409
产地	-9410
大厅	-9411
不少于	-9412
▁bit	-9413
平台上	-9414
中国人	-9415
ilita	-9416
保密	-9417
倾斜	-9418
说明书	-9419
度过	-9420
锦标	-9421
▁coll	-9422
在工作	-9423
官方网站	-9424
整洁	-9425
应用的	-9426
8000	-9427
▁particip	-9428
粘合	-9429
认为是	-9430
速率	-9431
聚酯	-9432
抗氧化	-9433
吸入	-9434
医学院	-9435
有一天	-9436
斯基	-9437
所以说	-9438
足以	-9439
金山	-9440
宁夏	-9441
衰老	-9442
19.	-9443
提供商	-9444
相关负责人	-9445
本轮	-9446
urance	-9447
风味	-9448
int	-9449
矿物	-9450
设备有限公司	-9451
铝型材	-9452
▁nec	-9453
尤其是在	-9454
nimport	-9455
▁hope	-9456
IE	-9457
ING	-9458
▁announc	-9459
简约	-9460
附加赛	-9461
用车	-9462
PLC	-9463
生命的	-9464
微笑	-9465
珍珠	-9466
设计与	-9467
录音	-9468
缓冲	-9469
脚步	-9470
对自己	-9471
一道	-9472
中部	-9473
▁Im	-9474
▁management	-9475
新高	-9476
质的	-9477
嵌入	-9478
源头	-9479
奖学金	-9480
▁War	-9481
环球	-9482
涉嫌	-9483
此后	-9484
这些问题	-9485
▁Char	-9486
无关	-9487
尔德	-9488
降雨	-9489
性疾病	-9490
▁4.	-9491
▁famil	-9492
▁according	-9493
目的地	-9494
数据中心	-9495
天津市	-9496
战平	-9497
大使	-9498
升温	-9499
风光	-9500
墨西哥	-9501
▁search	-9502
机和	-9503
紊乱	-9504
优异的	-9505
红茶	-9506
理事长	-9507
学士	-9508
不仅仅是	-9509
出门	-9510
扳平	-9511
有所不同	-9512
ope	-9513
日凌晨	-9514
ledge	-9515
珠海	-9516
▁respons	-9517
不符合	-9518
球星	-9519
领军	-9520
标杆	-9521
出生于	-9522
三次	-9523
管路	-9524
▁certain	-9525
下一个	-9526
Pl	-9527
意的	-9528
odel	-9529
我和	-9530
▁areas	-9531
灵感	-9532
ateg	-9533
新西兰	-9534
ev	-9535
外包	-9536
▁tax	-9537
▁told	-9538
首届	-9539
140	-9540
▁seen	-9541
比赛的	-9542
皮肤的	-9543
发改委	-9544
年产	-9545
新品	-9546
间距	-9547
▁improve	-9548
主轴	-9549
更具	-9550
嫌疑	-9551
以防	-9552
ari	-9553
摆放	-9554
加强对	-9555
▁June	-9556
到期	-9557
的比例	-9558
注意力	-9559
恐惧	-9560
马斯	-9561
net	-9562
湿地	-9563
aken	-9564
监督管理	-9565
变为	-9566
的用户	-9567
aim	-9568
目光	-9569
行星	-9570
切断	-9571
场均	-9572
相连	-9573
起步	-9574
也越来越	-9575
生产能力	-9576
找出	-9577
暴雨	-9578
沿海	-9579
的角度	-9580
传送	-9581
成年人	-9582
的主题	-9583
党员干部	-9584
▁travel	-9585
要及时	-9586
抗震	-9587
▁Associ	-9588
、1	-9589
数值	-9590
花生	-9591
高水平	-9592
自律	-9593
与我们	-9594
可以将	-9595
固醇	-9596
愿望	-9597
执教	-9598
周岁	-9599
开车	-9600
EX	-9601
洗净	-9602
▁mind	-9603
列为	-9604
▁currently	-9605
上场	-9606
勇气	-9607
树木	-9608
终止	-9609
▁relations	-9610
都被	-9611
▁ach	-9612
可以看到	-9613
的经济	-9614
▁mag	-9615
追溯	-9616
投标人	-9617
去年同期	-9618
not	-9619
idence	-9620
肝脏	-9621
党组织	-9622
▁Gra	-9623
甲状	-9624
,2017	-9625
失调	-9626
塑性	-9627
高职	-9628
黄河	-9629
▁didn	-9630
真的是	-9631
onse	-9632
去做	-9633
▁beh	-9634
RA	-9635
折叠	-9636
DI	-9637
身材	-9638
展开了	-9639
实际行动	-9640
不确定	-9641
全县	-9642
这条	-9643
但我	-9644
的国际	-9645
开门	-9646
在哪里	-9647
icha	-9648
ilar	-9649
漏洞	-9650
给自己	-9651
ground	-9652
一大	-9653
力求	-9654
提起	-9655
民国	-9656
任意球	-9657
局限	-9658
60%	-9659
尼龙	-9660
▁latest	-9661
ald	-9662
准则	-9663
可视	-9664
▁Air	-9665
无人机	-9666
▁happen	-9667
DNA	-9668
政策的	-9669
Sc	-9670
函数	-9671
改性	-9672
一般是	-9673
▁size	-9674
和支持	-9675
请联系	-9676
帷幕	-9677
▁bed	-9678
可行	-9679
▁via	-9680
▁公司	-9681
修建	-9682
(6	-9683
▁Dr	-9684
希望对	-9685
取得的	-9686
将与	-9687
有一种	-9688
活塞	-9689
流感	-9690
PG	-9691
▁Aut	-9692
ext	-9693
的声音	-9694
教育教学	-9695
ances	-9696
显微	-9697
胎儿	-9698
标的	-9699
日消息	-9700
ovember	-9701
nBy	-9702
风机的	-9703
。”",	-9704
疑惑	-9705
▁particular	-9706
激活	-9707
现有的	-9708
稍微	-9709
参照	-9710
发现了	-9711
路口	-9712
品尝	-9713
感知	-9714
征集	-9715
现阶段	-9716
救助	-9717
饮品	-9718
接下来的	-9719
并购	-9720
ga	-9721
利的	-9722
合资	-9723
点评	-9724
▁celeb	-9725
克森	-9726
修理	-9727
鲜明	-9728
cep	-9729
各行	-9730
行车	-9731
▁professional	-9732
它在	-9733
▁buy	-9734
特别的	-9735
这段	-9736
▁July	-9737
无害	-9738
抗压	-9739
eth	-9740
子里	-9741
日后	-9742
热带	-9743
保证金	-9744
代理商	-9745
原来的	-9746
▁cult	-9747
矿物质	-9748
中空	-9749
osp	-9750
当我们	-9751
排污	-9752
丧失	-9753
墙板	-9754
温和	-9755
肠胃	-9756
Windows	-9757
男足	-9758
▁2012	-9759
的有效	-9760
ondon	-9761
皇帝	-9762
题目	-9763
三等奖	-9764
本身的	-9765
▁includes	-9766
约束	-9767
在该	-9768
洗手	-9769
ica	-9770
副局长	-9771
三个月	-9772
ouch	-9773
一般情况下	-9774
大致	-9775
脱颖	-9776
表情	-9777
选择的	-9778
▁However	-9779
可使	-9780
早就	-9781
中西	-9782
改为	-9783
赛场	-9784
▁Dis	-9785
ни	-9786
创业者	-9787
绿色环保	-9788
入驻	-9789
演奏	-9790
自然科学	-9791
复兴	-9792
但却	-9793
▁piec	-9794
举办了	-9795
回头	-9796
碳纤维	-9797
像素	-9798
建于	-9799
水资源	-9800
集群	-9801
草原	-9802
回落	-9803
▁da	-9804
二人	-9805
他还	-9806
早餐	-9807
个工作	-9808
平方公里	-9809
▁Home	-9810
做什么	-9811
店的	-9812
▁sen	-9813
▁designed	-9814
tead	-9815
足球俱乐部	-9816
电子邮件	-9817
鉴于	-9818
为了让	-9819
▁tit	-9820
This	-9821
默默	-9822
简历	-9823
▁bat	-9824
城乡建设	-9825
辖区	-9826
!!	-9827
rick	-9828
上级	-9829
网点	-9830
灌溉	-9831
观测	-9832
黑暗	-9833
▁我们	-9834
工程专业	-9835
一颗	-9836
各方面	-9837
▁link	-9838
nHe	-9839
新闻网	-9840
缩小	-9841
▁install	-9842
▁energy	-9843
是一名	-9844
的建筑	-9845
表现出	-9846
▁ago	-9847
SM	-9848
配音	-9849
主办的	-9850
微信公众号	-9851
大地	-9852
可直接	-9853
hib	-9854
itive	-9855
常委	-9856
除外	-9857
链条	-9858
国庆	-9859
深耕	-9860
了自己的	-9861
评定	-9862
首选	-9863
▁President	-9864
发明专利	-9865
保罗	-9866
出国	-9867
持久	-9868
的方向	-9869
气味	-9870
等服务	-9871
将有	-9872
空气质量	-9873
▁further	-9874
榜首	-9875
沙特	-9876
的最佳	-9877
-15	-9878
二维码	-9879
基准	-9880
质感	-9881
身高	-9882
的人们	-9883
女排	-9884
实惠	-9885
抖音	-9886
线性	-9887
该剧	-9888
->	-9889
IL	-9890
inux	-9891
手册	-9892
。<\\/	-9893
中外	-9894
▁br	-9895
同时也是	-9896
停机	-9897
集合	-9898
实的	-9899
线索	-9900
诊治	-9901
It	-9902
▁created	-9903
unt	-9904
劳动者	-9905
▁China	-9906
紧固	-9907
斯的	-9908
带领下	-9909
OD	-9910
da	-9911
影院	-9912
溶于	-9913
疫情防控工作	-9914
酸钠	-9915
控制在	-9916
▁insp	-9917
寻常	-9918
染色	-9919
意愿	-9920
QQ	-9921
集中在	-9922
▁style	-9923
国王	-9924
数百	-9925
分开	-9926
四年	-9927
甲状腺	-9928
行业内	-9929
但这	-9930
用到	-9931
超出	-9932
金属材料	-9933
管网	-9934
驾驶员	-9935
信息公开	-9936
▁international	-9937
较差	-9938
▁我	-9939
科室	-9940
联赛中	-9941
中型	-9942
第九	-9943
年会	-9944
oid	-9945
的心态	-9946
lected	-9947
SA	-9948
pped	-9949
在职	-9950
量为	-9951
音响	-9952
石膏	-9953
丢失	-9954
注意的是	-9955
多层	-9956
布朗	-9957
易燃	-9958
偶像	-9959
前面	-9960
整齐	-9961
发展趋势	-9962
▁walk	-9963
热泵	-9964
十余	-9965
市的	-9966
二期	-9967
▁Cap	-9968
奠定了	-9969
常态化	-9970
生效	-9971
加州	-9972
struction	-9973
出于	-9974
警示	-9975
大门	-9976
走了	-9977
想起	-9978
主演的	-9979
敬请	-9980
▁II	-9981
烟台	-9982
一如	-9983
坚信	-9984
所述	-9985
▁human	-9986
wood	-9987
即使是	-9988
多位	-9989
金钱	-9990
推介	-9991
▁everything	-9992
洗车	-9993
立式	-9994
发展战略	-9995
▁recom	-9996
只会	-9997
牺牲	-9998
的孩子	-9999
电子产品	-10000
领导小组	-10001
▁above	-10002
4%	-10003
特斯拉	-10004
碳化	-10005
一季度	-10006
▁parent	-10007
精度高	-10008
aker	-10009
过硬	-10010
做事	-10011
公主	-10012
业态	-10013
▁popular	-10014
操控	-10015
多为	-10016
储能	-10017
但如果	-10018
木质	-10019
编织	-10020
应及时	-10021
进入了	-10022
no	-10023
ко	-10024
公安局	-10025
▁fre	-10026
和小	-10027
cial	-10028
伤口	-10029
十六	-10030
合一	-10031
茅台	-10032
▁various	-10033
亲切	-10034
的成功	-10035
▁sw	-10036
过往	-10037
我们必须	-10038
胎记	-10039
当初	-10040
以满足	-10041
焚烧	-10042
粒子	-10043
本次活动	-10044
时间长	-10045
▁trying	-10046
进了	-10047
不可避免	-10048
▁taking	-10049
之家	-10050
动能	-10051
之前的	-10052
杜绝	-10053
clus	-10054
不便	-10055
性能和	-10056
民事	-10057
▁fit	-10058
▁engine	-10059
十几	-10060
lers	-10061
▁application	-10062
艰苦	-10063
6,	-10064
衡量	-10065
因为它	-10066
这首	-10067
以人为本	-10068
客房	-10069
ales	-10070
技术研发	-10071
沉浸	-10072
▁beautiful	-10073
并发症	-10074
无缘	-10075
据介绍	-10076
任职	-10077
市面上	-10078
比较多	-10079
巴巴	-10080
个案	-10081
打出	-10082
掌控	-10083
的创新	-10084
营商	-10085
卵巢	-10086
张家	-10087
▁third	-10088
有无	-10089
色调	-10090
诈骗	-10091
不好的	-10092
▁study	-10093
的时代	-10094
亚马	-10095
复合材料	-10096
水上	-10097
得很	-10098
聪明	-10099
最后的	-10100
不予	-10101
是一些	-10102
的需要	-10103
短时间内	-10104
你是	-10105
win	-10106
▁experien	-10107
瘙痒	-10108
迎来了	-10109
是一位	-10110
还具有	-10111
并能	-10112
从而使	-10113
本产品	-10114
旅程	-10115
提到过	-10116
申花	-10117
情的	-10118
量化	-10119
▁日	-10120
知的	-10121
离合	-10122
缺席	-10123
真人	-10124
便携	-10125
还不	-10126
▁role	-10127
万人次	-10128
几个月	-10129
马德里	-10130
ibility	-10131
量子	-10132
开发商	-10133
文化遗产	-10134
程式	-10135
装卸	-10136
路段	-10137
深刻的	-10138
省政府	-10139
西湖	-10140
姐姐	-10141
手指	-10142
同仁	-10143
各行各	-10144
郑州市	-10145
膳食	-10146
▁held	-10147
经意间	-10148
到现在	-10149
学生们	-10150
门户	-10151
▁question	-10152
等症状	-10153
清华大学	-10154
▁previous	-10155
刺激性	-10156
投影	-10157
的表面	-10158
▁continue	-10159
批次	-10160
交往	-10161
值的	-10162
巴士	-10163
▁model	-10164
nb	-10165
崛起	-10166
保鲜	-10167
考研	-10168
一定程度上	-10169
▁super	-10170
了吗	-10171
uter	-10172
线圈	-10173
年间	-10174
充满了	-10175
在国际	-10176
是一件	-10177
gress	-10178
另有	-10179
致使	-10180
季后赛	-10181
信托	-10182
艺人	-10183
净化器	-10184
加热器	-10185
各单位	-10186
时段	-10187
征程	-10188
”,“	-10189
百分之	-10190
▁progra	-10191
引起了	-10192
soft	-10193
▁living	-10194
立法	-10195
党组	-10196
新城	-10197
▁After	-10198
你在	-10199
完工	-10200
擦拭	-10201
经验的	-10202
发布会上	-10203
净水器	-10204
开水	-10205
分工	-10206
油水	-10207
里面的	-10208
获胜	-10209
空白	-10210
医生的	-10211
riday	-10212
理性	-10213
三位	-10214
ply	-10215
系列的	-10216
交所	-10217
势头	-10218
共同努力	-10219
1996	-10220
8,	-10221
GO	-10222
新台	-10223
ithub	-10224
▁vari	-10225
电热	-10226
ires	-10227
aging	-10228
入手	-10229
较强	-10230
为公司	-10231
yd	-10232
互通	-10233
▁dou	-10234
▁recommend	-10235
宝石	-10236
trol	-10237
3%,	-10238
以下的	-10239
▁Time	-10240
审议	-10241
运维	-10242
短路	-10243
安全可靠	-10244
版的	-10245
▁San	-10246
7-	-10247
20.	-10248
调速	-10249
直接影响	-10250
这时候	-10251
马克思	-10252
建设工程	-10253
出线	-10254
不同于	-10255
朝阳	-10256
1.6	-10257
▁wind	-10258
观音	-10259
毕业后	-10260
就已经	-10261
人次	-10262
公司将	-10263
包裹	-10264
界的	-10265
首位	-10266
超过了	-10267
轿车	-10268
为用户提供	-10269
生产设备	-10270
意向	-10271
途中	-10272
▁half	-10273
的海	-10274
都非常	-10275
麦克	-10276
uel	-10277
工程学院	-10278
求精	-10279
畅销	-10280
如果在	-10281
▁Your	-10282
▁vehic	-10283
市场监管	-10284
PR	-10285
实施方案	-10286
ington	-10287
▁track	-10288
皮革	-10289
轮的	-10290
无症状	-10291
视力	-10292
晶体	-10293
有害物质	-10294
联手	-10295
大理	-10296
raft	-10297
电量	-10298
面貌	-10299
▁Don	-10300
多久	-10301
游玩	-10302
签下	-10303
这些都是	-10304
预选	-10305
ability	-10306
▁total	-10307
既往	-10308
菜单	-10309
引人	-10310
对决	-10311
大幅度	-10312
新风	-10313
▁foot	-10314
▁went	-10315
弥补	-10316
失去了	-10317
可将	-10318
ridge	-10319
的治疗方法	-10320
肥胖	-10321
anced	-10322
宣讲	-10323
本报	-10324
羽毛	-10325
咳嗽	-10326
可怕	-10327
olutions	-10328
km	-10329
就是要	-10330
▁Cons	-10331
到场	-10332
难免	-10333
增强了	-10334
气体的	-10335
nAl	-10336
onder	-10337
TE	-10338
千年	-10339
bers	-10340
载荷	-10341
全员	-10342
ried	-10343
亚马逊	-10344
减震	-10345
▁tell	-10346
反渗透	-10347
5%,	-10348
能让	-10349
7%	-10350
或缺	-10351
▁period	-10352
▁issue	-10353
很小	-10354
iable	-10355
的品质	-10356
▁Star	-10357
Le	-10358
其在	-10359
脱离	-10360
吊装	-10361
公元	-10362
办公厅	-10363
应有	-10364
规章	-10365
上面的	-10366
电容	-10367
改变了	-10368
分之一	-10369
▁December	-10370
猪肉	-10371
给他	-10372
芝麻	-10373
四氟	-10374
必定	-10375
出货	-10376
用在	-10377
工期	-10378
是企业	-10379
▁Afric	-10380
ouncil	-10381
冰雪	-10382
国资	-10383
压滤	-10384
整机	-10385
▁ey	-10386
输掉	-10387
射手	-10388
CM	-10389
不会有	-10390
今年以来	-10391
脱贫攻坚	-10392
111	-10393
区间	-10394
环境和	-10395
几何	-10396
评级	-10397
顽固	-10398
▁questions	-10399
合法权益	-10400
舒适的	-10401
亚军	-10402
GDP	-10403
周一	-10404
des	-10405
阐述	-10406
外交	-10407
暖气片	-10408
制剂	-10409
科创	-10410
药剂	-10411
布鲁	-10412
为一体	-10413
硬质	-10414
余额	-10415
▁former	-10416
借鉴	-10417
1997	-10418
变的	-10419
告诉记者	-10420
接受了	-10421
妇科	-10422
气管	-10423
性别	-10424
▁strate	-10425
之时	-10426
刹车	-10427
产学	-10428
机型	-10429
▁percent	-10430
▁mor	-10431
▁forward	-10432
防尘	-10433
现任	-10434
左侧	-10435
被誉为	-10436
起到了	-10437
ichael	-10438
它们的	-10439
的责任	-10440
比利时	-10441
对症	-10442
天使	-10443
得益	-10444
片区	-10445
铸件	-10446
top	-10447
aching	-10448
做一个	-10449
生产制造	-10450
Sp	-10451
油的	-10452
组委会	-10453
ided	-10454
定量	-10455
流传	-10456
▁actually	-10457
uge	-10458
▁Techn	-10459
▁一	-10460
实践中	-10461
下属	-10462
火车站	-10463
谋划	-10464
农业农村	-10465
ports	-10466
主队	-10467
外语	-10468
滑雪	-10469
▁cook	-10470
NS	-10471
集团的	-10472
vert	-10473
甚至是	-10474
走到	-10475
ending	-10476
oved	-10477
流入	-10478
回升	-10479
巨头	-10480
连结	-10481
▁God	-10482
奇怪	-10483
PI	-10484
将进一步	-10485
体现在	-10486
特点是	-10487
cast	-10488
▁September	-10489
虚假	-10490
双手	-10491
华东	-10492
▁else	-10493
本项目	-10494
零食	-10495
ford	-10496
▁present	-10497
希望大家	-10498
空气中的	-10499
合规	-10500
?”\	-10501
不断扩大	-10502
在与	-10503
是根据	-10504
▁cred	-10505
传球	-10506
和中	-10507
不利于	-10508
也都	-10509
争冠	-10510
▁points	-10511
必备	-10512
▁Chris	-10513
工委	-10514
木地板	-10515
▁options	-10516
脱颖而出	-10517
--------	-10518
心中的	-10519
▁received	-10520
与发展	-10521
打造出	-10522
ishing	-10523
了许多	-10524
碱性	-10525
联储	-10526
出席了	-10527
MW	-10528
哥哥	-10529
施工现场	-10530
urg	-10531
。2021	-10532
曾经提到过	-10533
多样化	-10534
形式的	-10535
地理位置	-10536
织物	-10537
各有	-10538
增值税	-10539
主要从事	-10540
1.8	-10541
▁shows	-10542
▁America	-10543
7,	-10544
ores	-10545
凸显	-10546
minist	-10547
ka	-10548
▁wide	-10549
一共	-10550
亚泰	-10551
三相	-10552
不等	-10553
防静电	-10554
显现	-10555
浓郁	-10556
存在着	-10557
比起	-10558
空间的	-10559
民营企业	-10560
亮度	-10561
鼓风机	-10562
word	-10563
▁October	-10564
他也	-10565
▁education	-10566
np	-10567
已经有	-10568
心理学	-10569
▁Pri	-10570
▁thought	-10571
企事业单位	-10572
三天	-10573
值班	-10574
服务和	-10575
粘接	-10576
pecially	-10577
几次	-10578
模糊	-10579
hern	-10580
fully	-10581
ida	-10582
就开始	-10583
没有什么	-10584
年至	-10585
▁By	-10586
工业生产	-10587
境界	-10588
月饼	-10589
表格	-10590
reme	-10591
附着	-10592
贵州省	-10593
东盟	-10594
红斑	-10595
氧化物	-10596
廉政	-10597
奇迹	-10598
▁front	-10599
▁ensure	-10600
右侧	-10601
随便	-10602
mers	-10603
身影	-10604
▁tar	-10605
的行业	-10606
雷斯	-10607
龙门	-10608
帮忙	-10609
女友	-10610
▁"1.	-10611
:1、	-10612
NO	-10613
▁whether	-10614
lu	-10615
不败	-10616
经济社会发展	-10617
发力	-10618
▁release	-10619
导入	-10620
石灰	-10621
hold	-10622
▁poten	-10623
ро	-10624
倒入	-10625
▁fa	-10626
成像	-10627
nect	-10628
不忘初心	-10629
笔试	-10630
进出	-10631
癫痫病	-10632
白癜风治疗	-10633
▁watch	-10634
▁reason	-10635
看完	-10636
▁Of	-10637
防线	-10638
业内人士	-10639
比较大	-10640
要知道	-10641
tition	-10642
▁located	-10643
姿态	-10644
滚动	-10645
PL	-10646
政府采购	-10647
▁Direct	-10648
育人	-10649
亚冠	-10650
治好	-10651
短暂	-10652
多特	-10653
深思	-10654
追究	-10655
卧室	-10656
天堂	-10657
技艺	-10658
博客	-10659
摄氏	-10660
采用的	-10661
▁cut	-10662
定向	-10663
审美	-10664
发文	-10665
ternal	-10666
挥发	-10667
五一	-10668
起着	-10669
孤独	-10670
悬挂	-10671
甲基	-10672
2-3	-10673
的客户	-10674
荣誉称号	-10675
dy	-10676
初级	-10677
质地	-10678
我们对	-10679
者和	-10680
影响力的	-10681
▁ap	-10682
▁hon	-10683
的上	-10684
三人	-10685
贯穿	-10686
mas	-10687
▁required	-10688
汉语	-10689
和个人	-10690
vestig	-10691
▁region	-10692
唯一的	-10693
氨基酸	-10694
▁details	-10695
▁position	-10696
不止	-10697
、10	-10698
▁image	-10699
沃尔	-10700
质量的	-10701
工作时	-10702
布莱	-10703
最有	-10704
elcome	-10705
异议	-10706
相较	-10707
▁Red	-10708
社交媒体	-10709
到处	-10710
增幅	-10711
隔膜	-10712
递交	-10713
网民	-10714
ION	-10715
货车	-10716
大队	-10717
温柔	-10718
新冠病毒	-10719
▁original	-10720
div	-10721
▁click	-10722
开幕式	-10723
没有人	-10724
mi	-10725
剧场	-10726
角落	-10727
▁fire	-10728
板式	-10729
▁College	-10730
获得的	-10731
▁national	-10732
▁action	-10733
over	-10734
锦标赛	-10735
▁den	-10736
anted	-10737
延迟	-10738
开裂	-10739
预案	-10740
▁meas	-10741
规程	-10742
比较高	-10743
zy	-10744
运送	-10745
绝大多数	-10746
▁white	-10747
会计师	-10748
万个	-10749
投资基金	-10750
平等	-10751
折扣	-10752
滚筒	-10753
nThere	-10754
安全管理	-10755
中断	-10756
破损	-10757
▁color	-10758
发货	-10759
取胜	-10760
华夏	-10761
商户	-10762
准确的	-10763
。2019	-10764
和新	-10765
忙碌	-10766
▁throughout	-10767
反击	-10768
报表	-10769
下车	-10770
成熟的	-10771
汇总	-10772
自愿	-10773
从业人员	-10774
考古	-10775
近视	-10776
造就	-10777
色列	-10778
楼梯	-10779
可以从	-10780
正常运行	-10781
白云	-10782
好看	-10783
普洱	-10784
教职工	-10785
常年	-10786
大街	-10787
定价	-10788
▁Facebook	-10789
李霄	-10790
小编就	-10791
▁career	-10792
领导班子	-10793
▁November	-10794
我国的	-10795
灭菌	-10796
hips	-10797
劳动合同	-10798
要把	-10799
除去	-10800
排队	-10801
已于	-10802
过去的	-10803
千万不要	-10804
商机	-10805
拓宽	-10806
窗户	-10807
它具有	-10808
斗争	-10809
自己在	-10810
法的	-10811
乐团	-10812
填报	-10813
耐候	-10814
▁black	-10815
名义	-10816
农场	-10817
▁India	-10818
同等	-10819
写道	-10820
订购	-10821
职业技术学院	-10822
真实的	-10823
▁Art	-10824
银屑病的	-10825
顶部	-10826
活泼	-10827
精华	-10828
▁security	-10829
备用	-10830
讯息	-10831
李霄鹏	-10832
▁six	-10833
要比	-10834
之后的	-10835
base	-10836
开采	-10837
▁taken	-10838
石油化工	-10839
Th	-10840
再到	-10841
▁recog	-10842
这里的	-10843
aign	-10844
花的	-10845
所能	-10846
管线	-10847
所有人	-10848
就是在	-10849
武术	-10850
烧结	-10851
蒸气	-10852
举行了	-10853
十三五	-10854
就被	-10855
的综合	-10856
▁Play	-10857
沿着	-10858
偶尔	-10859
鳞屑	-10860
这种疾病	-10861
lish	-10862
多么	-10863
ota	-10864
左右的	-10865
不断创新	-10866
▁card	-10867
要是	-10868
水位	-10869
分析仪	-10870
▁poli	-10871
逾期	-10872
治疗牛皮癣	-10873
▁coming	-10874
主张	-10875
知识和	-10876
▁amount	-10877
ators	-10878
▁whole	-10879
国立	-10880
稿件	-10881
食欲	-10882
与您	-10883
总数	-10884
功耗	-10885
堆积	-10886
民政	-10887
之美	-10888
aby	-10889
DR	-10890
锦赛	-10891
mental	-10892
就读	-10893
遇见	-10894
建筑材料	-10895
▁ver	-10896
班主任	-10897
经验和	-10898
贴心	-10899
车道	-10900
首页	-10901
iber	-10902
破裂	-10903
▁heart	-10904
▁...	-10905
作用下	-10906
小小的	-10907
▁announced	-10908
平行	-10909
每人	-10910
赞助	-10911
着重	-10912
龙头企业	-10913
真实性	-10914
心血管	-10915
一无	-10916
轻微	-10917
。2020	-10918
工况	-10919
呼吸道	-10920
吉祥	-10921
热闹	-10922
Cr	-10923
运会	-10924
武磊	-10925
水温	-10926
的营养	-10927
人生的	-10928
可选	-10929
高原	-10930
小麦	-10931
7%,	-10932
有过	-10933
传中	-10934
这是因为	-10935
大胆	-10936
You	-10937
乒乓	-10938
横向	-10939
结局	-10940
▁face	-10941
titute	-10942
TF	-10943
欧洲杯	-10944
水产	-10945
▁send	-10946
剪切	-10947
县城	-10948
次助攻	-10949
通胀	-10950
上月	-10951
▁London	-10952
玻璃纤维	-10953
在设计	-10954
▁August	-10955
3:	-10956
一句名言	-10957
▁attend	-10958
战士	-10959
高质量的	-10960
▁vol	-10961
化学反应	-10962
▁从	-10963
新冠肺炎疫情	-10964
很好地	-10965
▁album	-10966
▁network	-10967
某一	-10968
印尼	-10969
ules	-10970
的价值	-10971
的日子	-10972
的重点	-10973
/\	-10974
精益求精	-10975
科技成果	-10976
开局	-10977
▁1、	-10978
也能够	-10979
ruary	-10980
博士后	-10981
做成	-10982
车床	-10983
0.2	-10984
石头	-10985
满意度	-10986
录制	-10987
mar	-10988
是全球	-10989
以赴	-10990
后勤	-10991
可以达到	-10992
敌人	-10993
ky	-10994
避免了	-10995
erman	-10996
上看	-10997
工程设计	-10998
▁idea	-10999
便秘	-11000
不稳定	-11001
等内容	-11002
自豪	-11003
火爆	-11004
▁phys	-11005
不怕	-11006
▁中	-11007
立场	-11008
胡萝卜	-11009
并可	-11010
检测设备	-11011
边界	-11012
▁opportunity	-11013
不安	-11014
tention	-11015
矫正	-11016
社团	-11017
在生活中	-11018
建筑业	-11019
强力	-11020
讨厌	-11021
▁death	-11022
提问	-11023
不是很	-11024
风貌	-11025
CEO	-11026
说过这样一句名言	-11027
与服务	-11028
▁du	-11029
▁users	-11030
单板	-11031
软管	-11032
▁recently	-11033
▁Up	-11034
答复	-11035
9%	-11036
首轮	-11037
2500	-11038
云端	-11039
人流	-11040
兴起	-11041
▁plat	-11042
一百	-11043
40%	-11044
的良好	-11045
礼仪	-11046
马达	-11047
关节炎	-11048
▁cover	-11049
奋进	-11050
区政府	-11051
这将	-11052
菲律	-11053
完备	-11054
哪种	-11055
以色列	-11056
304	-11057
是什么呢	-11058
pa	-11059
▁players	-11060
海口	-11061
高空	-11062
ville	-11063
散发	-11064
贵阳	-11065
1%,	-11066
价钱	-11067
山西省	-11068
不可或缺	-11069
万物	-11070
zui	-11071
代价	-11072
基本的	-11073
暴力	-11074
▁manufact	-11075
tivi	-11076
▁Some	-11077
通讯员	-11078
冬奥会	-11079
nf	-11080
并有	-11081
全力以赴	-11082
硬盘	-11083
时空	-11084
耳机	-11085
特定的	-11086
而且在	-11087
iddle	-11088
的地	-11089
急救	-11090
与管理	-11091
具有一定的	-11092
因应	-11093
互补	-11094
搬迁	-11095
在接受	-11096
相信大家	-11097
以保证	-11098
4%,	-11099
▁entire	-11100
▁road	-11101
宁静	-11102
辽宁省	-11103
hing	-11104
职业技能	-11105
场馆	-11106
也可能	-11107
▁running	-11108
ructure	-11109
庆典	-11110
正好	-11111
农历	-11112
▁His	-11113
知名品牌	-11114
▁soon	-11115
喜悦	-11116
废水处理	-11117
含义	-11118
▁red	-11119
仿真	-11120
描写	-11121
骨架	-11122
菲律宾	-11123
▁pat	-11124
出有	-11125
野生	-11126
沉积	-11127
ociety	-11128
都没	-11129
四周	-11130
极端	-11131
肉类	-11132
([	-11133
用餐	-11134
HO	-11135
印花	-11136
真相	-11137
发掘	-11138
TT	-11139
是大	-11140
不可以	-11141
目前在	-11142
▁Black	-11143
td	-11144
king	-11145
发展规划	-11146
治疗效果	-11147
witch	-11148
alls	-11149
based	-11150
吸尘	-11151
的传统	-11152
专人	-11153
合作社	-11154
草坪	-11155
微型	-11156
每个人都	-11157
尔多	-11158
CA	-11159
но	-11160
清明	-11161
ese	-11162
无奈	-11163
和国家	-11164
装机	-11165
性能稳定	-11166
mary	-11167
倡议	-11168
在不经意间	-11169
ico	-11170
起来的	-11171
▁hit	-11172
们在	-11173
减缓	-11174
▁contrib	-11175
用工	-11176
复习	-11177
▁2、	-11178
柠檬	-11179
膜的	-11180
:10	-11181
是一项	-11182
摩托车	-11183
伴有	-11184
▁stay	-11185
借由	-11186
水中的	-11187
所在地	-11188
▁ess	-11189
一来	-11190
的大力	-11191
型钢	-11192
她在	-11193
整车	-11194
▁с	-11195
▁signific	-11196
创新发展	-11197
又一	-11198
太原	-11199
干细胞	-11200
rant	-11201
▁att	-11202
为自己	-11203
摄像头	-11204
▁Friday	-11205
▁inj	-11206
和对	-11207
磁性	-11208
bor	-11209
核实	-11210
的操作	-11211
:2022	-11212
取出	-11213
安东	-11214
变频器	-11215
▁situ	-11216
洛杉	-11217
防晒	-11218
▁financial	-11219
方形	-11220
分级	-11221
教育厅	-11222
残疾人	-11223
占用	-11224
洛阳	-11225
时隔	-11226
行业的发展	-11227
住了	-11228
购房	-11229
epend	-11230
不懂	-11231
难得	-11232
会引起	-11233
tivities	-11234
加班	-11235
市场中	-11236
软化	-11237
中国科学院	-11238
民航	-11239
两个人	-11240
▁production	-11241
坚强	-11242
总支	-11243
将持续	-11244
改良	-11245
决议	-11246
善良	-11247
静脉	-11248
的平台	-11249
场比赛中	-11250
一号	-11251
在内	-11252
兰特	-11253
分钟后	-11254
人民医院	-11255
屏蔽	-11256
ocal	-11257
旁边	-11258
’,	-11259
烧烤	-11260
不幸	-11261
洛杉矶	-11262
核准	-11263
对企业	-11264
伤病	-11265
例外	-11266
酿造	-11267
进水	-11268
▁projects	-11269
曝气	-11270
纷纷表示	-11271
名人	-11272
▁Ag	-11273
太平洋	-11274
置于	-11275
▁mach	-11276
所示	-11277
电工	-11278
是需要	-11279
crib	-11280
▁prob	-11281
初始	-11282
启用	-11283
的重	-11284
产品研发	-11285
心理健康	-11286
产品在	-11287
智能家居	-11288
▁everyone	-11289
闻名	-11290
纸张	-11291
的教育	-11292
的好处	-11293
illed	-11294
▁base	-11295
台风	-11296
脱发	-11297
保持在	-11298
▁common	-11299
偏方	-11300
▁stop	-11301
居然	-11302
装配式	-11303
各种各样的	-11304
媒体的	-11305
对中国	-11306
omin	-11307
才有	-11308
网红	-11309
贮存	-11310
针对性的	-11311
农户	-11312
替换	-11313
记账	-11314
刚开始	-11315
全天	-11316
聆听	-11317
用户体验	-11318
姑娘	-11319
tery	-11320
though	-11321
制定了	-11322
生产效率	-11323
个国家	-11324
▁favor	-11325
陈代谢	-11326
。3	-11327
字母	-11328
品类	-11329
典型的	-11330
自有	-11331
为主的	-11332
样式	-11333
风格的	-11334
更重要的是	-11335
UL	-11336
永恒	-11337
第二天	-11338
非常好的	-11339
,20	-11340
仍是	-11341
俗称	-11342
想像	-11343
丹麦	-11344
等部门	-11345
风情	-11346
经贸	-11347
中介	-11348
▁stat	-11349
本品	-11350
客队	-11351
健康发展	-11352
arning	-11353
实战	-11354
icrosoft	-11355
ned	-11356
的一面	-11357
▁someone	-11358
▁released	-11359
nQ	-11360
少吃	-11361
激光切割	-11362
▁pick	-11363
狗狗	-11364
是利用	-11365
法律责任	-11366
――	-11367
▁provided	-11368
纳税人	-11369
付费	-11370
集聚	-11371
回事	-11372
裂纹	-11373
亚麻	-11374
▁Department	-11375
射线	-11376
是由于	-11377
认识到	-11378
nTo	-11379
混乱	-11380
当地的	-11381
isting	-11382
被动	-11383
要多	-11384
研究和	-11385
续约	-11386
▁global	-11387
estiv	-11388
我很	-11389
扣除	-11390
▁believe	-11391
海水	-11392
王子	-11393
原有的	-11394
field	-11395
的意思	-11396
总面积	-11397
修补	-11398
▁creat	-11399
结构简单	-11400
防伪	-11401
irth	-11402
▁clients	-11403
医护人员	-11404
执行官	-11405
家政	-11406
▁establ	-11407
可再生	-11408
颁发的	-11409
话说	-11410
ibrary	-11411
衍生	-11412
网格	-11413
耐久	-11414
赛中	-11415
美国的	-11416
包容	-11417
▁worked	-11418
不清	-11419
证件	-11420
命名	-11421
很可能	-11422
经常出现	-11423
演艺	-11424
至关重要	-11425
▁store	-11426
插入	-11427
着手	-11428
做大	-11429
检疫	-11430
人身	-11431
本月	-11432
的人群	-11433
专科医院	-11434
orge	-11435
本期	-11436
国际机场	-11437
采摘	-11438
道路上	-11439
项目部	-11440
XX	-11441
▁blog	-11442
白癜风是一种	-11443
毫不	-11444
gn	-11445
指的是	-11446
1\	-11447
极致	-11448
这名	-11449
口径	-11450
lier	-11451
注册资金	-11452
产后	-11453
新媒体	-11454
▁receive	-11455
rian	-11456
cks	-11457
风采	-11458
诚实	-11459
)”	-11460
打造的	-11461
提倡	-11462
的重要组成部分	-11463
仅供参考	-11464
一辆	-11465
旋律	-11466
▁leaders	-11467
▁Sund	-11468
防盗	-11469
列表	-11470
进行检查	-11471
在对	-11472
where	-11473
▁answ	-11474
合唱	-11475
公司以	-11476
管理制度	-11477
定做	-11478
磁场	-11479
兼任	-11480
媒体报道	-11481
展位	-11482
遗址	-11483
▁sales	-11484
护航	-11485
制订	-11486
腕表	-11487
创伤	-11488
听力	-11489
强国	-11490
果实	-11491
颜值	-11492
晚会	-11493
黑色素细胞	-11494
学习教育	-11495
总部位于	-11496
念佛	-11497
的特性	-11498
化肥	-11499
▁Sw	-11500
▁download	-11501
环境温度	-11502
vis	-11503
诊所	-11504
业者	-11505
六个	-11506
hile	-11507
无可	-11508
沿线	-11509
---	-11510
的未来	-11511
ape	-11512
环氧树脂	-11513
HK	-11514
大米	-11515
雷达	-11516
新闻发布会	-11517
上游	-11518
仪器仪表	-11519
gs	-11520
加盖	-11521
爷爷	-11522
▁Street	-11523
正当	-11524
分离器	-11525
CS	-11526
尴尬	-11527
(5)	-11528
这样说过	-11529
参与了	-11530
奶奶	-11531
所长	-11532
生活中的	-11533
影响的	-11534
ditional	-11535
精美	-11536
应届	-11537
被人	-11538
冷静	-11539
平静	-11540
建构	-11541
场面	-11542
海绵	-11543
积累了	-11544
国企	-11545
料理	-11546
放假	-11547
手持	-11548
目标是	-11549
一身	-11550
▁	-11551
,	-11552
e	-11553
n	-11554
的	-11555
t	-11556
a	-11557
i	-11558
o	-11559
。	-11560
s	-11561
r	-11562
"	-11563
、	-11564
\	-11565
l	-11566
h	-11567
d	-11568
m	-11569
c	-11570
0	-11571
一	-11572
u	-11573
是	-11574
1	-11575
p	-11576
在	-11577
有	-11578
2	-11579
:	-11580
y	-11581
.	-11582
不	-11583
中	-11584
g	-11585
人	-11586
f	-11587
为	-11588
了	-11589
和	-11590
大	-11591
用	-11592
以	-11593
业	-11594
生	-11595
w	-11596
要	-11597
国	-11598
能	-11599
年	-11600
工	-11601
发	-11602
会	-11603
时	-11604
k	-11605
上	-11606
b	-11607
可	-11608
作	-11609
学	-11610
行	-11611
成	-11612
个	-11613
于	-11614
3	-11615
这	-11616
到	-11617
产	-11618
对	-11619
“	-11620
v	-11621
来	-11622
5	-11623
”	-11624
)	-11625
高	-11626
出	-11627
(	-11628
多	-11629
家	-11630
分	-11631
我	-11632
公	-11633
理	-11634
机	-11635
等	-11636
动	-11637
品	-11638
进	-11639
方	-11640
地	-11641
x	-11642
化	-11643
4	-11644
过	-11645
们	-11646
体	-11647
新	-11648
全	-11649
力	-11650
合	-11651
现	-11652
电	-11653
下	-11654
后	-11655
自	-11656
C	-11657
性	-11658
设	-11659
与	-11660
也	-11661
面	-11662
经	-11663
度	-11664
9	-11665
日	-11666
市	-11667
水	-11668
加	-11669
S	-11670
同	-11671
{	-11672
}	-11673
开	-11674
及	-11675
实	-11676
-	-11677
6	-11678
8	-11679
本	-11680
A	-11681
定	-11682
就	-11683
场	-11684
好	-11685
量	-11686
展	-11687
部	-11688
主	-11689
提	-11690
T	-11691
制	-11692
通	-11693
而	-11694
其	-11695
重	-11696
心	-11697
内	-11698
P	-11699
保	-11700
应	-11701
;	-11702
建	-11703
务	-11704
之	-11705
月	-11706
前	-11707
7	-11708
将	-11709
者	-11710
物	-11711
长	-11712
如	-11713
司	-11714
他	-11715
得	-11716
所	-11717
关	-11718
间	-11719
I	-11720
法	-11721
管	-11722
小	-11723
种	-11724
程	-11725
都	-11726
子	-11727
比	-11728
技	-11729
更	-11730
使	-11731
区	-11732
目	-11733
外	-11734
最	-11735
系	-11736
质	-11737
员	-11738
点	-11739
计	-11740
安	-11741
位	-11742
表	-11743
因	-11744
资	-11745
期	-11746
相	-11747
情	-11748
并	-11749
术	-11750
天	-11751
式	-11752
文	-11753
常	-11754
M	-11755
入	-11756
数	-11757
网	-11758
很	-11759
事	-11760
还	-11761
第	-11762
专	-11763
风	-11764
金	-11765
果	-11766
平	-11767
特	-11768
或	-11769
科	-11770
活	-11771
企	-11772
球	-11773
服	-11774
次	-11775
信	-11776
气	-11777
意	-11778
R	-11779
名	-11780
车	-11781
赛	-11782
料	-11783
利	-11784
需	-11785
道	-11786
备	-11787
无	-11788
此	-11789
接	-11790
D	-11791
E	-11792
当	-11793
各	-11794
B	-11795
从	-11796
教	-11797
件	-11798
具	-11799
起	-11800
美	-11801
三	-11802
解	-11803
器	-11804
说	-11805
据	-11806
强	-11807
造	-11808
然	-11809
?	-11810
着	-11811
统	-11812
基	-11813
明	-11814
但	-11815
项	-11816
标	-11817
队	-11818
结	-11819
装	-11820
运	-11821
型	-11822
些	-11823
流	-11824
线	-11825
效	-11826
由	-11827
院	-11828
手	-11829
代	-11830
正	-11831
》	-11832
求	-11833
处	-11834
《	-11835
持	-11836
环	-11837
病	-11838
研	-11839
色	-11840
创	-11841
商	-11842
防	-11843
供	-11844
元	-11845
看	-11846
选	-11847
单	-11848
L	-11849
组	-11850
联	-11851
白	-11852
格	-11853
感	-11854
热	-11855
O	-11856
户	-11857
里	-11858
交	-11859
样	-11860
题	-11861
你	-11862
规	-11863
门	-11864
导	-11865
传	-11866
医	-11867
治	-11868
广	-11869
!	-11870
路	-11871
已	-11872
N	-11873
报	-11874
身	-11875
优	-11876
集	-11877
'	-11878
原	-11879
么	-11880
受	-11881
增	-11882
民	-11883
做	-11884
海	-11885
示	-11886
台	-11887
G	-11888
级	-11889
%	-11890
较	-11891
F	-11892
价	-11893
影	-11894
材	-11895
问	-11896
H	-11897
达	-11898
两	-11899
至	-11900
立	-11901
变	-11902
j	-11903
任	-11904
西	-11905
被	-11906
向	-11907
类	-11908
节	-11909
二	-11910
让	-11911
调	-11912
温	-11913
客	-11914
光	-11915
注	-11916
知	-11917
精	-11918
政	-11919
形	-11920
收	-11921
总	-11922
去	-11923
万	-11924
证	-11925
校	-11926
没	-11927
空	-11928
少	-11929
先	-11930
源	-11931
带	-11932
完	-11933
容	-11934
营	-11935
口	-11936
准	-11937
东	-11938
W	-11939
压	-11940
团	-11941
疗	-11942
包	-11943
低	-11944
直	-11945
想	-11946
领	-11947
构	-11948
师	-11949
南	-11950
育	-11951
己	-11952
每	-11953
整	-11954
考	-11955
打	-11956
测	-11957
验	-11958
费	-11959
该	-11960
北	-11961
省	-11962
放	-11963
布	-11964
功	-11965
护	-11966
别	-11967
速	-11968
只	-11969
推	-11970
控	-11971
消	-11972
共	-11973
取	-11974
城	-11975
施	-11976
非	-11977
山	-11978
参	-11979
采	-11980
确	-11981
易	-11982
社	-11983
食	-11984
指	-11985
率	-11986
限	-11987
投	-11988
/	-11989
认	-11990
办	-11991
视	-11992
那	-11993
息	-11994
转	-11995
世	-11996
回	-11997
清	-11998
助	-11999
近	-12000
试	-12001
境	-12002
十	-12003
_	-12004
它	-12005
观	-12006
界	-12007
给	-12008
游	-12009
板	-12010
足	-12011
超	-12012
站	-12013
支	-12014
复	-12015
今	-12016
油	-12017
续	-12018
快	-12019
战	-12020
检	-12021
配	-12022
维	-12023
老	-12024
改	-12025
深	-12026
际	-12027
决	-12028
斯	-12029
升	-12030
步	-12031
才	-12032
积	-12033
记	-12034
头	-12035
越	-12036
书	-12037
排	-12038
适	-12039
究	-12040
获	-12041
况	-12042
且	-12043
根	-12044
查	-12045
四	-12046
局	-12047
再	-12048
素	-12049
模	-12050
真	-12051
响	-12052
号	-12053
致	-12054
州	-12055
引	-12056
患	-12057
乐	-12058
置	-12059
议	-12060
除	-12061
V	-12062
条	-12063
首	-12064
皮	-12065
片	-12066
养	-12067
态	-12068
便	-12069
华	-12070
何	-12071
请	-12072
钢	-12073
状	-12074
U	-12075
花	-12076
断	-12077
女	-12078
牌	-12079
周	-12080
德	-12081
值	-12082
极	-12083
案	-12084
尔	-12085
显	-12086
离	-12087
销	-12088
约	-12089
药	-12090
艺	-12091
告	-12092
房	-12093
预	-12094
干	-12095
域	-12096
称	-12097
米	-12098
职	-12099
未	-12100
见	-12101
健	-12102
必	-12103
细	-12104
室	-12105
划	-12106
爱	-12107
委	-12108
随	-12109
神	-12110
存	-12111
识	-12112
始	-12113
反	-12114
连	-12115
亚	-12116
满	-12117
范	-12118
属	-12119
则	-12120
济	-12121
康	-12122
择	-12123
话	-12124
习	-12125
列	-12126
马	-12127
即	-12128
协	-12129
降	-12130
势	-12131
层	-12132
厂	-12133
难	-12134
众	-12135
智	-12136
季	-12137
论	-12138
京	-12139
图	-12140
照	-12141
石	-12142
克	-12143
免	-12144
把	-12145
五	-12146
够	-12147
售	-12148
z	-12149
权	-12150
什	-12151
修	-12152
减	-12153
望	-12154
责	-12155
几	-12156
承	-12157
—	-12158
园	-12159
仅	-12160
切	-12161
候	-12162
音	-12163
您	-12164
演	-12165
士	-12166
K	-12167
江	-12168
拉	-12169
历	-12170
例	-12171
段	-12172
又	-12173
字	-12174
火	-12175
友	-12176
景	-12177
股	-12178
许	-12179
充	-12180
农	-12181
评	-12182
癜	-12183
均	-12184
青	-12185
输	-12186
负	-12187
围	-12188
密	-12189
简	-12190
酒	-12191
英	-12192
命	-12193
严	-12194
党	-12195
微	-12196
张	-12197
红	-12198
份	-12199
监	-12200
J	-12201
太	-12202
儿	-12203
阳	-12204
象	-12205
双	-12206
良	-12207
培	-12208
落	-12209
亿	-12210
核	-12211
织	-12212
按	-12213
含	-12214
店	-12215
土	-12216
购	-12217
轻	-12218
失	-12219
疫	-12220
林	-12221
款	-12222
筑	-12223
险	-12224
算	-12225
介	-12226
终	-12227
般	-12228
吸	-12229
液	-12230
角	-12231
奖	-12232
往	-12233
剂	-12234
益	-12235
语	-12236
举	-12237
思	-12238
富	-12239
住	-12240
百	-12241
声	-12242
冷	-12243
互	-12244
融	-12245
稳	-12246
污	-12247
铁	-12248
她	-12249
走	-12250
军	-12251
星	-12252
像	-12253
送	-12254
训	-12255
早	-12256
轮	-12257
依	-12258
普	-12259
银	-12260
括	-12261
止	-12262
念	-12263
王	-12264
坚	-12265
觉	-12266
血	-12267
善	-12268
村	-12269
边	-12270
义	-12271
须	-12272
汽	-12273
换	-12274
课	-12275
卡	-12276
故	-12277
印	-12278
染	-12279
欢	-12280
河	-12281
q	-12282
香	-12283
味	-12284
争	-12285
县	-12286
孩	-12287
言	-12288
半	-12289
旅	-12290
府	-12291
*	-12292
版	-12293
聚	-12294
酸	-12295
底	-12296
远	-12297
激	-12298
福	-12299
策	-12300
耐	-12301
频	-12302
龙	-12303
货	-12304
尽	-12305
害	-12306
希	-12307
仪	-12308
木	-12309
居	-12310
帮	-12311
博	-12312
络	-12313
罗	-12314
黄	-12315
编	-12316
冠	-12317
巴	-12318
史	-12319
抗	-12320
群	-12321
戏	-12322
录	-12323
固	-12324
志	-12325
讲	-12326
兴	-12327
击	-12328
端	-12329
卫	-12330
吃	-12331
享	-12332
却	-12333
班	-12334
剧	-12335
损	-12336
初	-12337
破	-12338
操	-12339
兰	-12340
洗	-12341
差	-12342
软	-12343
茶	-12344
补	-12345
竞	-12346
欧	-12347
载	-12348
喜	-12349
留	-12350
障	-12351
港	-12352
波	-12353
伤	-12354
症	-12355
另	-12356
析	-12357
云	-12358
宝	-12359
独	-12360
拥	-12361
牛	-12362
副	-12363
Y	-12364
律	-12365
申	-12366
批	-12367
胜	-12368
买	-12369
余	-12370
继	-12371
宣	-12372
粉	-12373
净	-12374
础	-12375
画	-12376
塑	-12377
眼	-12378
否	-12379
胶	-12380
绿	-12381
临	-12382
播	-12383
纳	-12384
财	-12385
械	-12386
移	-12387
饮	-12388
异	-12389
钟	-12390
紧	-12391
套	-12392
·	-12393
绍	-12394
丰	-12395
担	-12396
额	-12397
执	-12398
古	-12399
男	-12400
=	-12401
氧	-12402
短	-12403
春	-12404
黑	-12405
亲	-12406
哪	-12407
官	-12408
审	-12409
阿	-12410
透	-12411
综	-12412
读	-12413
序	-12414
占	-12415
射	-12416
找	-12417
航	-12418
突	-12419
彩	-12420
李	-12421
湖	-12422
洲	-12423
略	-12424
毒	-12425
疾	-12426
迎	-12427
练	-12428
待	-12429
箱	-12430
招	-12431
纪	-12432
座	-12433
肤	-12434
写	-12435
绝	-12436
呢	-12437
树	-12438
询	-12439
饰	-12440
冲	-12441
停	-12442
虽	-12443
避	-12444
尼	-12445
镇	-12446
促	-12447
千	-12448
苏	-12449
讯	-12450
泛	-12451
+	-12452
馆	-12453
楼	-12454
架	-12455
甲	-12456
针	-12457
靠	-12458
曾	-12459
税	-12460
六	-12461
奥	-12462
附	-12463
玩	-12464
盖	-12465
码	-12466
缺	-12467
杯	-12468
岁	-12469
劳	-12470
听	-12471
绩	-12472
餐	-12473
块	-12474
X	-12475
库	-12476
佳	-12477
页	-12478
届	-12479
秀	-12480
登	-12481
植	-12482
封	-12483
索	-12484
启	-12485
松	-12486
愿	-12487
散	-12488
仍	-12489
零	-12490
膜	-12491
乡	-12492
媒	-12493
武	-12494
令	-12495
床	-12496
废	-12497
托	-12498
奇	-12499
键	-12500
跟	-12501
左	-12502
隔	-12503
述	-12504
遇	-12505
警	-12506
池	-12507
某	-12508
怎	-12509
逐	-12510
叶	-12511
征	-12512
挥	-12513
右	-12514
盘	-12515
脱	-12516
授	-12517
错	-12518
朋	-12519
母	-12520
涂	-12521
菜	-12522
顺	-12523
刻	-12524
察	-12525
票	-12526
章	-12527
杂	-12528
飞	-12529
签	-12530
假	-12531
纸	-12532
混	-12533
晚	-12534
扩	-12535
久	-12536
链	-12537
庭	-12538
宁	-12539
洁	-12540
典	-12541
丝	-12542
硬	-12543
灵	-12544
储	-12545
磨	-12546
汉	-12547
危	-12548
贵	-12549
诊	-12550
湿	-12551
触	-12552
阶	-12553
灯	-12554
延	-12555
脑	-12556
陈	-12557
润	-12558
滑	-12559
著	-12560
腐	-12561
燃	-12562
厚	-12563
午	-12564
攻	-12565
探	-12566
毕	-12567
庆	-12568
谢	-12569
矿	-12570
盟	-12571
曲	-12572
拿	-12573
付	-12574
革	-12575
急	-12576
钱	-12577
追	-12578
缩	-12579
轴	-12580
荣	-12581
守	-12582
肉	-12583
亮	-12584
甚	-12585
困	-12586
册	-12587
雨	-12588
沙	-12589
顾	-12590
族	-12591
歌	-12592
厅	-12593
献	-12594
刚	-12595
席	-12596
夏	-12597
童	-12598
八	-12599
慢	-12600
顶	-12601
草	-12602
符	-12603
摄	-12604
威	-12605
熟	-12606
闻	-12607
努	-12608
诚	-12609
谈	-12610
虑	-12611
若	-12612
丽	-12613
访	-12614
静	-12615
似	-12616
玻	-12617
滤	-12618
措	-12619
背	-12620
炎	-12621
鲜	-12622
菌	-12623
铝	-12624
距	-12625
Q	-12626
退	-12627
牙	-12628
借	-12629
吗	-12630
尤	-12631
璃	-12632
夫	-12633
订	-12634
咨	-12635
烟	-12636
诉	-12637
吧	-12638
予	-12639
碳	-12640
脂	-12641
死	-12642
桥	-12643
永	-12644
墙	-12645
佛	-12646
宜	-12647
拍	-12648
币	-12649
暖	-12650
°	-12651
痛	-12652
伴	-12653
阻	-12654
[	-12655
]	-12656
幅	-12657
泰	-12658
脚	-12659
>	-12660
藏	-12661
塔	-12662
泡	-12663
露	-12664
癣	-12665
毛	-12666
岛	-12667
尘	-12668
川	-12669
斑	-12670
凝	-12671
坏	-12672
圆	-12673
街	-12674
幕	-12675
判	-12676
寿	-12677
乎	-12678
礼	-12679
$	-12680
渐	-12681
爆	-12682
泵	-12683
锈	-12684
答	-12685
七	-12686
烧	-12687
汇	-12688
鱼	-12689
救	-12690
禁	-12691
梦	-12692
森	-12693
览	-12694
九	-12695
婚	-12696
雷	-12697
塞	-12698
喷	-12699
趣	-12700
休	-12701
疑	-12702
辆	-12703
累	-12704
胞	-12705
讨	-12706
刺	-12707
搭	-12708
粒	-12709
衣	-12710
刘	-12711
肥	-12712
督	-12713
烈	-12714
央	-12715
泥	-12716
贴	-12717
束	-12718
贸	-12719
穿	-12720
尚	-12721
夜	-12722
阵	-12723
径	-12724
租	-12725
挑	-12726
糖	-12727
骨	-12728
斗	-12729
途	-12730
盛	-12731
蛋	-12732
纯	-12733
冬	-12734
田	-12735
归	-12736
耗	-12737
颜	-12738
屋	-12739
孔	-12740
巨	-12741
窗	-12742
句	-12743
吉	-12744
齐	-12745
湾	-12746
误	-12747
宽	-12748
堂	-12749
卖	-12750
遗	-12751
蚀	-12752
煤	-12753
词	-12754
缓	-12755
释	-12756
屏	-12757
溶	-12758
涉	-12759
档	-12760
刷	-12761
舞	-12762
惠	-12763
曼	-12764
详	-12765
父	-12766
励	-12767
殊	-12768
杀	-12769
既	-12770
迷	-12771
呈	-12772
浓	-12773
振	-12774
诺	-12775
苦	-12776
雪	-12777
派	-12778
篮	-12779
誉	-12780
吨	-12781
峰	-12782
Z	-12783
概	-12784
闭	-12785
摘	-12786
雄	-12787
截	-12788
幸	-12789
哈	-12790
坐	-12791
笔	-12792
磁	-12793
妈	-12794
败	-12795
圈	-12796
赢	-12797
慧	-12798
涨	-12799
循	-12800
缘	-12801
洋	-12802
怀	-12803
陆	-12804
握	-12805
估	-12806
炉	-12807
末	-12808
韩	-12809
潮	-12810
寻	-12811
侧	-12812
冰	-12813
<	-12814
掌	-12815
岗	-12816
纤	-12817
镜	-12818
扬	-12819
践	-12820
粘	-12821
弹	-12822
抓	-12823
屑	-12824
沟	-12825
萨	-12826
宗	-12827
拟	-12828
焊	-12829
迪	-12830
船	-12831
券	-12832
螺	-12833
沉	-12834
蓝	-12835
纷	-12836
津	-12837
悉	-12838
呼	-12839
锅	-12840
倍	-12841
倒	-12842
圳	-12843
跑	-12844
填	-12845
旧	-12846
鼓	-12847
梅	-12848
阀	-12849
~	-12850
瓦	-12851
焦	-12852
瑞	-12853
偏	-12854
敏	-12855
翻	-12856
署	-12857
违	-12858
邮	-12859
董	-12860
圣	-12861
阅	-12862
旋	-12863
跨	-12864
映	-12865
召	-12866
折	-12867
伙	-12868
址	-12869
隐	-12870
伦	-12871
盐	-12872
旗	-12873
拓	-12874
秋	-12875
亦	-12876
灾	-12877
杆	-12878
趋	-12879
澳	-12880
添	-12881
乙	-12882
衡	-12883
玉	-12884
虚	-12885
杨	-12886
叫	-12887
贡	-12888
掉	-12889
恶	-12890
辅	-12891
覆	-12892
奶	-12893
秘	-12894
莱	-12895
梁	-12896
雅	-12897
肯	-12898
舒	-12899
伊	-12900
私	-12901
浪	-12902
晶	-12903
弱	-12904
捷	-12905
震	-12906
援	-12907
苗	-12908
纹	-12909
恩	-12910
洛	-12911
驾	-12912
笑	-12913
&	-12914
蒸	-12915
恒	-12916
朝	-12917
替	-12918
燥	-12919
绕	-12920
摩	-12921
递	-12922
豆	-12923
聘	-12924
麻	-12925
俱	-12926
乘	-12927
野	-12928
铜	-12929
荷	-12930
恢	-12931
奋	-12932
皇	-12933
抽	-12934
尺	-12935
繁	-12936
勇	-12937
漏	-12938
潜	-12939
【	-12940
】	-12941
寸	-12942
迅	-12943
醒	-12944
–	-12945
凭	-12946
遍	-12947
颗	-12948
о	-12949
栏	-12950
裂	-12951
裁	-12952
暴	-12953
贫	-12954
杰	-12955
姆	-12956
沿	-12957
哥	-12958
伟	-12959
伍	-12960
龄	-12961
犯	-12962
宫	-12963
耳	-12964
砂	-12965
蒙	-12966
彻	-12967
薄	-12968
珠	-12969
浙	-12970
癌	-12971
郑	-12972
贝	-12973
榜	-12974
顿	-12975
卷	-12976
夺	-12977
灰	-12978
祝	-12979
篇	-12980
а	-12981
惊	-12982
漫	-12983
兼	-12984
垃	-12985
鲁	-12986
竟	-12987
圾	-12988
辑	-12989
刀	-12990
唱	-12991
惯	-12992
芯	-12993
壁	-12994
嘉	-12995
挂	-12996
墨	-12997
驶	-12998
邀	-12999
浮	-13000
喝	-13001
妇	-13002
谷	-13003
搜	-13004
巧	-13005
荐	-13006
账	-13007
烯	-13008
睡	-13009
阴	-13010
乳	-13011
紫	-13012
贯	-13013
柱	-13014
饭	-13015
诗	-13016
漆	-13017
锁	-13018
碎	-13019
鸡	-13020
携	-13021
描	-13022
仓	-13023
锋	-13024
幼	-13025
豪	-13026
宇	-13027
戴	-13028
炼	-13029
庄	-13030
齿	-13031
仁	-13032
返	-13033
～	-13034
乌	-13035
债	-13036
跌	-13037
铸	-13038
鉴	-13039
毫	-13040
肠	-13041
橡	-13042
袋	-13043
吴	-13044
贷	-13045
乱	-13046
井	-13047
驱	-13048
宾	-13049
胃	-13050
罪	-13051
罚	-13052
麦	-13053
轨	-13054
楚	-13055
泽	-13056
怕	-13057
唯	-13058
扶	-13059
脸	-13060
赞	-13061
瓶	-13062
伸	-13063
硅	-13064
旨	-13065
坛	-13066
残	-13067
遭	-13068
肌	-13069
寒	-13070
缝	-13071
丁	-13072
抵	-13073
愈	-13074
朗	-13075
瓷	-13076
弃	-13077
拼	-13078
敬	-13079
葡	-13080
氨	-13081
暂	-13082
俄	-13083
畅	-13084
侵	-13085
炭	-13086
柔	-13087
筹	-13088
横	-13089
赏	-13090
柜	-13091
淡	-13092
胡	-13093
铺	-13094
泉	-13095
勒	-13096
兵	-13097
丹	-13098
凡	-13099
肺	-13100
#	-13101
莫	-13102
匀	-13103
绪	-13104
谁	-13105
汤	-13106
孕	-13107
и	-13108
扫	-13109
尾	-13110
谱	-13111
旦	-13112
陶	-13113
扎	-13114
甘	-13115
肿	-13116
胎	-13117
脉	-13118
’	-13119
刊	-13120
插	-13121
涵	-13122
砖	-13123
译	-13124
忘	-13125
迹	-13126
拜	-13127
萄	-13128
灭	-13129
殖	-13130
宿	-13131
撑	-13132
坡	-13133
擦	-13134
抢	-13135
厨	-13136
割	-13137
隆	-13138
е	-13139
雾	-13140
吊	-13141
尊	-13142
镀	-13143
默	-13144
伯	-13145
唐	-13146
凯	-13147
猪	-13148
壳	-13149
闲	-13150
缆	-13151
偿	-13152
冻	-13153
硫	-13154
噪	-13155
遵	-13156
扣	-13157
珍	-13158
脏	-13159
岩	-13160
谓	-13161
勤	-13162
甜	-13163
虫	-13164
氛	-13165
渠	-13166
孙	-13167
渗	-13168
雕	-13169
摆	-13170
浆	-13171
赖	-13172
н	-13173
岸	-13174
桃	-13175
徐	-13176
辛	-13177
跳	-13178
扰	-13179
灌	-13180
伏	-13181
拆	-13182
碍	-13183
酯	-13184
缴	-13185
尿	-13186
晓	-13187
亡	-13188
昌	-13189
籍	-13190
帝	-13191
宅	-13192
腾	-13193
陷	-13194
蔬	-13195
诸	-13196
忆	-13197
祖	-13198
氏	-13199
瘤	-13200
锌	-13201
洞	-13202
俗	-13203
辉	-13204
抑	-13205
壮	-13206
赵	-13207
埃	-13208
梯	-13209
弟	-13210
娱	-13211
绘	-13212
‘	-13213
佩	-13214
晨	-13215
牢	-13216
肝	-13217
@	-13218
腹	-13219
卓	-13220
乏	-13221
艾	-13222
驻	-13223
暗	-13224
尖	-13225
菲	-13226
徽	-13227
硕	-13228
宏	-13229
尝	-13230
锦	-13231
跃	-13232
虎	-13233
魔	-13234
杜	-13235
偶	-13236
粮	-13237
滚	-13238
搬	-13239
姓	-13240
框	-13241
坦	-13242
凉	-13243
劲	-13244
|	-13245
仿	-13246
倾	-13247
秒	-13248
é	-13249
拔	-13250
昨	-13251
蒂	-13252
拒	-13253
冒	-13254
罐	-13255
弯	-13256
竹	-13257
钻	-13258
瓜	-13259
腔	-13260
稿	-13261
悬	-13262
杭	-13263
厦	-13264
壤	-13265
浦	-13266
拌	-13267
罩	-13268
挖	-13269
烘	-13270
碱	-13271
浸	-13272
氯	-13273
夹	-13274
纺	-13275
忽	-13276
纽	-13277
羊	-13278
邦	-13279
舍	-13280
р	-13281
醇	-13282
懂	-13283
逆	-13284
晋	-13285
滴	-13286
桌	-13287
猫	-13288
薪	-13289
妻	-13290
帅	-13291
朱	-13292
臭	-13293
爸	-13294
允	-13295
昆	-13296
巡	-13297
廉	-13298
颁	-13299
烦	-13300
迫	-13301
盒	-13302
槽	-13303
挤	-13304
咖	-13305
忙	-13306
恋	-13307
迁	-13308
恐	-13309
眠	-13310
欣	-13311
欲	-13312
洪	-13313
垫	-13314
棉	-13315
粗	-13316
貌	-13317
敢	-13318
奏	-13319
秉	-13320
т	-13321
赶	-13322
奉	-13323
胀	-13324
沃	-13325
陕	-13326
迈	-13327
谐	-13328
忧	-13329
锻	-13330
с	-13331
辣	-13332
剪	-13333
炸	-13334
诱	-13335
履	-13336
狗	-13337
沈	-13338
仔	-13339
辽	-13340
慎	-13341
堆	-13342
弗	-13343
皆	-13344
抱	-13345
淘	-13346
黎	-13347
盈	-13348
催	-13349
筛	-13350
撞	-13351
刑	-13352
凌	-13353
氢	-13354
姐	-13355
冶	-13356
搅	-13357
踏	-13358
鞋	-13359
亩	-13360
怪	-13361
忠	-13362
旁	-13363
宋	-13364
浴	-13365
捐	-13366
晒	-13367
碰	-13368
婴	-13369
妆	-13370
泄	-13371
陪	-13372
敌	-13373
滨	-13374
淀	-13375
掘	-13376
啊	-13377
筒	-13378
疆	-13379
饱	-13380
剩	-13381
牵	-13382
稀	-13383
叉	-13384
挡	-13385
啡	-13386
晰	-13387
郁	-13388
疏	-13389
卵	-13390
幻	-13391
丙	-13392
辨	-13393
仙	-13394
×	-13395
胆	-13396
谋	-13397
妙	-13398
寄	-13399
稍	-13400
踪	-13401
君	-13402
彼	-13403
赠	-13404
堡	-13405
琴	-13406
斤	-13407
揭	-13408
赫	-13409
熔	-13410
烤	-13411
煮	-13412
邻	-13413
吹	-13414
阔	-13415
坪	-13416
悦	-13417
蜜	-13418
赋	-13419
锡	-13420
衰	-13421
卸	-13422
聊	-13423
淋	-13424
浅	-13425
谨	-13426
馨	-13427
碑	-13428
祥	-13429
肾	-13430
滋	-13431
闪	-13432
抛	-13433
纵	-13434
饼	-13435
钙	-13436
矩	-13437
契	-13438
疼	-13439
鸟	-13440
漂	-13441
埋	-13442
鹏	-13443
徒	-13444
拖	-13445
彰	-13446
枝	-13447
堵	-13448
腺	-13449
桶	-13450
柴	-13451
摸	-13452
役	-13453
疲	-13454
鼻	-13455
颈	-13456
辐	-13457
郭	-13458
苹	-13459
в	-13460
惜	-13461
溪	-13462
凤	-13463
棒	-13464
艰	-13465
囊	-13466
脾	-13467
迟	-13468
肃	-13469
颖	-13470
诞	-13471
乔	-13472
垂	-13473
蓄	-13474
赴	-13475
串	-13476
劣	-13477
俊	-13478
腿	-13479
纠	-13480
秦	-13481
削	-13482
筋	-13483
肪	-13484
癫	-13485
泌	-13486
辖	-13487
坊	-13488
妹	-13489
乃	-13490
狂	-13491
л	-13492
嘴	-13493
哲	-13494
逃	-13495
旺	-13496
睛	-13497
棚	-13498
к	-13499
蜂	-13500
曝	-13501
泳	-13502
玛	-13503
番	-13504
炒	-13505
匹	-13506
汁	-13507
暨	-13508
骑	-13509
慈	-13510
浏	-13511
耶	-13512
汗	-13513
斜	-13514
氮	-13515
剑	-13516
莲	-13517
耀	-13518
丢	-13519
氟	-13520
函	-13521
赁	-13522
寺	-13523
腰	-13524
牧	-13525
桑	-13526
桂	-13527
苯	-13528
痫	-13529
酱	-13530
摇	-13531
奔	-13532
艳	-13533
寓	-13534
帕	-13535
悲	-13536
芳	-13537
叠	-13538
敦	-13539
隙	-13540
馈	-13541
浩	-13542
踢	-13543
昂	-13544
扭	-13545
拨	-13546
倡	-13547
椅	-13548
辞	-13549
卢	-13550
兄	-13551
磷	-13552
涯	-13553
捕	-13554
赚	-13555
擎	-13556
赔	-13557
霍	-13558
兹	-13559
盆	-13560
盲	-13561
姜	-13562
扇	-13563
盾	-13564
娜	-13565
遥	-13566
耕	-13567
渡	-13568
忍	-13569
燕	-13570
戒	-13571
韧	-13572
御	-13573
膏	-13574
骗	-13575
贺	-13576
沫	-13577
醛	-13578
崇	-13579
痕	-13580
袭	-13581
魅	-13582
羽	-13583
姿	-13584
熊	-13585
募	-13586
厘	-13587
暑	-13588
魂	-13589
辈	-13590
忌	-13591
酷	-13592
肩	-13593
鸣	-13594
盗	-13595
酵	-13596
弘	-13597
悠	-13598
椒	-13599
枪	-13600
爽	-13601
卧	-13602
锐	-13603
株	-13604
爷	-13605
毁	-13606
孤	-13607
栽	-13608
骤	-13609
渣	-13610
芝	-13611
酶	-13612
荡	-13613
缸	-13614
栋	-13615
柏	-13616
猛	-13617
衬	-13618
绵	-13619
挺	-13620
糕	-13621
饲	-13622
膨	-13623
•	-13624
胸	-13625
搞	-13626
吐	-13627
披	-13628
肖	-13629
帽	-13630
鼠	-13631
绳	-13632
竭	-13633
酿	-13634
芽	-13635
恰	-13636
柳	-13637
烂	-13638
闸	-13639
慰	-13640
鬼	-13641
谊	-13642
臂	-13643
箭	-13644
浇	-13645
弥	-13646
嫌	-13647
姻	-13648
惑	-13649
汰	-13650
删	-13651
朴	-13652
胺	-13653
逊	-13654
穆	-13655
扮	-13656
岭	-13657
兽	-13658
锂	-13659
疹	-13660
逾	-13661
廷	-13662
棋	-13663
脆	-13664
霸	-13665
垢	-13666
鹿	-13667
栓	-13668
勃	-13669
闹	-13670
辩	-13671
堪	-13672
溢	-13673
宠	-13674
腻	-13675
婆	-13676
瞬	-13677
廊	-13678
厌	-13679
翼	-13680
芬	-13681
д	-13682
刮	-13683
朵	-13684
丧	-13685
悟	-13686
胁	-13687
亭	-13688
搏	-13689
犹	-13690
娘	-13691
煌	-13692
陵	-13693
遮	-13694
碗	-13695
抹	-13696
穷	-13697
亏	-13698
м	-13699
茨	-13700
洽	-13701
欠	-13702
霉	-13703
涌	-13704
碧	-13705
舰	-13706
戈	-13707
钠	-13708
啦	-13709
莉	-13710
仰	-13711
贾	-13712
虹	-13713
鼎	-13714
奈	-13715
渔	-13716
讼	-13717
宴	-13718
狮	-13719
伪	-13720
贤	-13721
凸	-13722
蹈	-13723
鸿	-13724
衔	-13725
伐	-13726
愉	-13727
兆	-13728
扑	-13729
у	-13730
偷	-13731
匠	-13732
糊	-13733
裕	-13734
宙	-13735
隧	-13736
洒	-13737
驰	-13738
滩	-13739
韦	-13740
拳	-13741
颇	-13742
磊	-13743
曹	-13744
勘	-13745
莞	-13746
纱	-13747
丸	-13748
弄	-13749
蔡	-13750
丘	-13751
逻	-13752
擅	-13753
窝	-13754
狼	-13755
慕	-13756
黏	-13757
睐	-13758
侠	-13759
旬	-13760
涤	-13761
泪	-13762
泻	-13763
塘	-13764
轧	-13765
鑫	-13766
―	-13767
赤	-13768
翔	-13769
爬	-13770
毅	-13771
奠	-13772
弧	-13773
诵	-13774
哦	-13775
沦	-13776
傅	-13777
攀	-13778
坑	-13779
峡	-13780
粤	-13781
辰	-13782
邓	-13783
铭	-13784
押	-13785
茅	-13786
肢	-13787
茂	-13788
痒	-13789
雇	-13790
虾	-13791
荒	-13792
幽	-13793
咱	-13794
魏	-13795
卜	-13796
孟	-13797
萝	-13798
庞	-13799
撤	-13800
屈	-13801
墅	-13802
厉	-13803
丈	-13804
舟	-13805
п	-13806
渴	-13807
畜	-13808
庙	-13809
腊	-13810
栅	-13811
酬	-13812
顽	-13813
韵	-13814
葱	-13815
仲	-13816
妥	-13817
凑	-13818
懈	-13819
莎	-13820
衷	-13821
稻	-13822
扳	-13823
琳	-13824
孝	-13825
飘	-13826
嫩	-13827
聪	-13828
勿	-13829
铅	-13830
滞	-13831
枢	-13832
逼	-13833
巩	-13834
涛	-13835
恼	-13836
胖	-13837
霜	-13838
眉	-13839
鸭	-13840
祭	-13841
彭	-13842
桩	-13843
兑	-13844
郎	-13845
怒	-13846
叹	-13847
矛	-13848
湘	-13849
巢	-13850
敲	-13851
á	-13852
淮	-13853
纲	-13854
詹	-13855
巾	-13856
〔	-13857
钉	-13858
〕	-13859
瘦	-13860
粪	-13861
舶	-13862
扁	-13863
帘	-13864
帆	-13865
妨	-13866
岳	-13867
泊	-13868
猜	-13869
烷	-13870
夕	-13871
沥	-13872
嵌	-13873
陌	-13874
啤	-13875
惧	-13876
蓬	-13877
霞	-13878
抚	-13879
摊	-13880
蕴	-13881
遣	-13882
哭	-13883
翰	-13884
柯	-13885
梨	-13886
贮	-13887
醉	-13888
镁	-13889
沸	-13890
逢	-13891
喻	-13892
逸	-13893
撒	-13894
沪	-13895
侦	-13896
厕	-13897
窄	-13898
旭	-13899
硝	-13900
熬	-13901
寨	-13902
疯	-13903
峻	-13904
殿	-13905
秩	-13906
冯	-13907
і	-13908
抖	-13909
萌	-13910
坝	-13911
鳞	-13912
傲	-13913
杉	-13914
蜡	-13915
ä	-13916
烫	-13917
墓	-13918
涡	-13919
禽	-13920
竣	-13921
衍	-13922
怨	-13923
烹	-13924
钮	-13925
诈	-13926
娃	-13927
猎	-13928
吕	-13929
菩	-13930
犬	-13931
奢	-13932
阁	-13933
枚	-13934
→	-13935
簧	-13936
潘	-13937
溯	-13938
叙	-13939
盼	-13940
í	-13941
笼	-13942
咸	-13943
侯	-13944
剥	-13945
鹰	-13946
狱	-13947
舱	-13948
佐	-13949
侨	-13950
翠	-13951
ó	-13952
玲	-13953
惨	-13954
巷	-13955
舌	-13956
藤	-13957
湛	-13958
瓣	-13959
炮	-13960
梳	-13961
瑰	-13962
芦	-13963
晴	-13964
窑	-13965
磅	-13966
咳	-13967
憾	-13968
─	-13969
帐	-13970
沧	-13971
枣	-13972
斌	-13973
唤	-13974
陀	-13975
萧	-13976
屡	-13977
臣	-13978
狐	-13979
芒	-13980
撰	-13981
溃	-13982
г	-13983
弦	-13984
®	-13985
凹	-13986
醋	-13987
漠	-13988
菊	-13989
阐	-13990
袖	-13991
葛	-13992
怡	-13993
樱	-13994
钛	-13995
袁	-13996
蔽	-13997
蛇	-13998
畏	-13999
咽	-14000
姑	-14001
坎	-14002
肚	-14003
蝶	-14004
蒋	-14005
绎	-14006
脊	-14007
蟹	-14008
潭	-14009
茄	-14010
腕	-14011
я	-14012
闷	-14013
缠	-14014
敷	-14015
抄	-14016
捉	-14017
汪	-14018
勾	-14019
妮	-14020
鹅	-14021
邪	-14022
豫	-14023
穴	-14024
歇	-14025
乒	-14026
吞	-14027
旱	-14028
姚	-14029
藻	-14030
咬	-14031
酰	-14032
闯	-14033
叔	-14034
铃	-14035
欺	-14036
喊	-14037
艇	-14038
喂	-14039
仇	-14040
壶	-14041
撕	-14042
椎	-14043
籽	-14044
惩	-14045
凶	-14046
绒	-14047
铬	-14048
玫	-14049
糟	-14050
枯	-14051
^	-14052
躁	-14053
罕	-14054
抬	-14055
轩	-14056
蒜	-14057
钾	-14058
`	-14059
夸	-14060
荧	-14061
酚	-14062
拭	-14063
蓉	-14064
逝	-14065
祸	-14066
煎	-14067
髓	-14068
辟	-14069
渝	-14070
苍	-14071
恨	-14072
悔	-14073
橙	-14074
丛	-14075
冈	-14076
玄	-14077
锤	-14078
辊	-14079
薯	-14080
剖	-14081
●	-14082
晕	-14083
镍	-14084
悄	-14085
猴	-14086
蔓	-14087
爵	-14088
斩	-14089
誓	-14090
喉	-14091
绑	-14092
贪	-14093
粥	-14094
卉	-14095
蕾	-14096
刹	-14097
捧	-14098
裹	-14099
罢	-14100
呀	-14101
劝	-14102
歧	-14103
吁	-14104
菇	-14105
±	-14106
膝	-14107
з	-14108
苑	-14109
酮	-14110
轰	-14111
掩	-14112
矫	-14113
杏	-14114
兔	-14115
絮	-14116
拘	-14117
紊	-14118
翅	-14119
轿	-14120
膀	-14121
狭	-14122
裤	-14123
骄	-14124
坤	-14125
匙	-14126
鹤	-14127
珊	-14128
厢	-14129
棕	-14130
汛	-14131
挫	-14132
泼	-14133
谭	-14134
孵	-14135
隶	-14136
й	-14137
褐	-14138
糙	-14139
ö	-14140
钩	-14141
琼	-14142
镑	-14143
胚	-14144
杠	-14145
ü	-14146
龟	-14147
荆	-14148
昏	-14149
伺	-14150
痘	-14151
锥	-14152
禅	-14153
咪	-14154
ь	-14155
婷	-14156
敞	-14157
拾	-14158
侣	-14159
崩	-14160
垒	-14161
呆	-14162
膳	-14163
熙	-14164
霄	-14165
灿	-14166
疮	-14167
・	-14168
祈	-14169
焰	-14170
埔	-14171
牲	-14172
宪	-14173
绣	-14174
僵	-14175
稣	-14176
灶	-14177
蚁	-14178
б	-14179
挚	-14180
尸	-14181
瑜	-14182
焚	-14183
毯	-14184
▲	-14185
怖	-14186
莓	-14187
冀	-14188
慌	-14189
澄	-14190
嫁	-14191
葬	-14192
浑	-14193
砌	-14194
榨	-14195
斥	-14196
贩	-14197
钥	-14198
颠	-14199
诠	-14200
谜	-14201
渍	-14202
愁	-14203
谦	-14204
槛	-14205
郊	-14206
萎	-14207
桐	-14208
挽	-14209
赐	-14210
驳	-14211
橘	-14212
呵	-14213
趁	-14214
柄	-14215
凰	-14216
裙	-14217
劫	-14218
捞	-14219
彦	-14220
瞻	-14221
舆	-14222
纬	-14223
亨	-14224
碌	-14225
脓	-14226
寂	-14227
稠	-14228
帷	-14229
★	-14230
睿	-14231
茎	-14232
迭	-14233
枫	-14234
畴	-14235
梗	-14236
苛	-14237
沾	-14238
躺	-14239
浊	-14240
釜	-14241
卑	-14242
迄	-14243
祛	-14244
坠	-14245
嘱	-14246
谣	-14247
仗	-14248
伞	-14249
翁	-14250
彬	-14251
薇	-14252
甸	-14253
饪	-14254
瑟	-14255
μ	-14256
哀	-14257
狠	-14258
萃	-14259
烃	-14260
弊	-14261
昭	-14262
甄	-14263
勉	-14264
崔	-14265
窃	-14266
俩	-14267
摔	-14268
竖	-14269
淬	-14270
宰	-14271
揽	-14272
靖	-14273
茫	-14274
塌	-14275
梭	-14276
钦	-14277
滥	-14278
咒	-14279
挣	-14280
馏	-14281
鲍	-14282
妖	-14283
皱	-14284
挪	-14285
踩	-14286
恭	-14287
伽	-14288
≤	-14289
鄂	-14290
歉	-14291
勋	-14292
缔	-14293
雀	-14294
昔	-14295
遂	-14296
酪	-14297
澡	-14298
铣	-14299
菱	-14300
慨	-14301
萍	-14302
僧	-14303
惟	-14304
琪	-14305
愤	-14306
堤	-14307
皂	-14308
枕	-14309
〉	-14310
粹	-14311
骏	-14312
溉	-14313
砍	-14314
崛	-14315
锯	-14316
洱	-14317
拦	-14318
卤	-14319
吓	-14320
娇	-14321
喘	-14322
莹	-14323
牺	-14324
ч	-14325
沂	-14326
刃	-14327
庸	-14328
疱	-14329
郡	-14330
钓	-14331
〈	-14332
逛	-14333
焕	-14334
掀	-14335
懒	-14336
吵	-14337
胰	-14338
巅	-14339
瘙	-14340
裔	-14341
嗽	-14342
撼	-14343
渊	-14344
锰	-14345
ы	-14346
躲	-14347
艘	-14348
佣	-14349
涩	-14350
铲	-14351
矶	-14352
è	-14353
熏	-14354
缅	-14355
丑	-14356
坯	-14357
篷	-14358
佑	-14359
聆	-14360
顷	-14361
邵	-14362
豹	-14363
棵	-14364
绸	-14365
柠	-14366
瞩	-14367
邱	-14368
儒	-14369
檬	-14370
饿	-14371
匆	-14372
帖	-14373
衫	-14374
崭	-14375
闽	-14376
奎	-14377
萤	-14378
潍	-14379
宵	-14380
夯	-14381
栖	-14382
谅	-14383
滕	-14384
仕	-14385
啥	-14386
乓	-14387
栗	-14388
晃	-14389
肆	-14390
屠	-14391
饶	-14392
晖	-14393
冕	-14394
箔	-14395
蚊	-14396
昊	-14397
醚	-14398
牡	-14399
翩	-14400
榄	-14401
靶	-14402
唇	-14403
缀	-14404
屯	-14405
£	-14406
à	-14407
葵	-14408
蔚	-14409
沛	-14410
辱	-14411
喀	-14412
尬	-14413
吾	-14414
炫	-14415
纶	-14416
沐	-14417
柿	-14418
麟	-14419
圭	-14420
疡	-14421
蛮	-14422
呕	-14423
橱	-14424
疤	-14425
楠	-14426
澜	-14427
赣	-14428
曰	-14429
吻	-14430
绞	-14431
琐	-14432
骂	-14433
瀑	-14434
拱	-14435
尴	-14436
盯	-14437
廖	-14438
惹	-14439
褪	-14440
莅	-14441
飙	-14442
ł	-14443
裸	-14444
痴	-14445
痰	-14446
畸	-14447
赌	-14448
祂	-14449
′	-14450
捏	-14451
倦	-14452
愧	-14453
蕉	-14454
崖	-14455
颂	-14456
叛	-14457
拧	-14458
祷	-14459
楞	-14460
蜀	-14461
尹	-14462
耍	-14463
锚	-14464
夷	-14465
绽	-14466
殷	-14467
耽	-14468
扔	-14469
畔	-14470
涅	-14471
棘	-14472
仑	-14473
淑	-14474
睹	-14475
碟	-14476
葫	-14477
橄	-14478
屿	-14479
肇	-14480
禾	-14481
焙	-14482
厄	-14483
垄	-14484
炖	-14485
霆	-14486
杞	-14487
秤	-14488
笋	-14489
姨	-14490
椰	-14491
阜	-14492
魄	-14493
柚	-14494
薛	-14495
瑶	-14496
栈	-14497
佼	-14498
虐	-14499
酥	-14500
贞	-14501
琦	-14502
妃	-14503
砺	-14504
秆	-14505
崎	-14506
榆	-14507
踊	-14508
鞍	-14509
挠	-14510
镶	-14511
乾	-14512
≥	-14513
»	-14514
х	-14515
襄	-14516
娟	-14517
雁	-14518
廓	-14519
趟	-14520
壹	-14521
惕	-14522
揉	-14523
拯	-14524
靓	-14525
椭	-14526
釉	-14527
穗	-14528
孜	-14529
戚	-14530
剔	-14531
灼	-14532
雌	-14533
钝	-14534
羞	-14535
©	-14536
傻	-14537
叮	-14538
霾	-14539
堰	-14540
墩	-14541
枸	-14542
饺	-14543
傍	-14544
蛛	-14545
芭	-14546
喔	-14547
灸	-14548
羡	-14549
澎	-14550
勺	-14551
淤	-14552
坞	-14553
秸	-14554
哨	-14555
肴	-14556
恳	-14557
堿	-14558
翘	-14559
馅	-14560
雯	-14561
奴	-14562
铂	-14563
蒲	-14564
芜	-14565
鞭	-14566
泸	-14567
矮	-14568
骼	-14569
侈	-14570
寡	-14571
讶	-14572
荔	-14573
瞄	-14574
淇	-14575
沼	-14576
漓	-14577
ц	-14578
哺	-14579
淄	-14580
禄	-14581
蠕	-14582
婉	-14583
宛	-14584
芙	-14585
毗	-14586
彤	-14587
痣	-14588
帜	-14589
瘾	-14590
黔	-14591
嘛	-14592
å	-14593
拐	-14594
溜	-14595
汀	-14596
绷	-14597
匪	-14598
巫	-14599
爪	-14600
筝	-14601
韶	-14602
掺	-14603
氰	-14604
妊	-14605
遏	-14606
菠	-14607
甩	-14608
遴	-14609
酋	-14610
腌	-14611
奕	-14612
柑	-14613
棱	-14614
嵩	-14615
脐	-14616
娠	-14617
俯	-14618
砥	-14619
蹄	-14620
脖	-14621
蜗	-14622
汕	-14623
诀	-14624
硼	-14625
曦	-14626
郝	-14627
晾	-14628
柬	-14629
ж	-14630
邹	-14631
矢	-14632
饥	-14633
悍	-14634
肋	-14635
躯	-14636
袍	-14637
榴	-14638
炬	-14639
怜	-14640
汲	-14641
潢	-14642
逗	-14643
扯	-14644
槟	-14645
愚	-14646
骚	-14647
盏	-14648
肽	-14649
溅	-14650
翡	-14651
蚂	-14652
惫	-14653
熄	-14654
澈	-14655
珀	-14656
禹	-14657
捆	-14658
◆	-14659
拣	-14660
邢	-14661
喧	-14662
窖	-14663
斋	-14664
砸	-14665
匈	-14666
旷	-14667
卿	-14668
荫	-14669
霖	-14670
稽	-14671
姬	-14672
瘀	-14673
茁	-14674
の	-14675
糯	-14676
○	-14677
羟	-14678
捡	-14679
贼	-14680
咏	-14681
蜘	-14682
孢	-14683
谎	-14684
昼	-14685
扛	-14686
琅	-14687
嚼	-14688
碾	-14689
睾	-14690
垦	-14691
嘲	-14692
绚	-14693
淳	-14694
阪	-14695
桔	-14696
阮	-14697
茵	-14698
皓	-14699
冥	-14700
芹	-14701
刨	-14702
腥	-14703
嗅	-14704
苔	-14705
埠	-14706
钨	-14707
抒	-14708
侍	-14709
潇	-14710
漳	-14711
淹	-14712
敛	-14713
媚	-14714
贬	-14715
亢	-14716
棍	-14717
瀚	-14718
蝴	-14719
赎	-14720
喇	-14721
粽	-14722
惰	-14723
幢	-14724
驿	-14725
羌	-14726
甫	-14727
迦	-14728
ー	-14729
弓	-14730
渤	-14731
匿	-14732
‧	-14733
邑	-14734
哑	-14735
眩	-14736
寝	-14737
胱	-14738
讽	-14739
芋	-14740
跻	-14741
龚	-14742
腋	-14743
窦	-14744
忱	-14745
斐	-14746
寞	-14747
靴	-14748
怠	-14749
骁	-14750
庐	-14751
С	-14752
梓	-14753
倪	-14754
沁	-14755
辜	-14756
蚕	-14757
妍	-14758
靡	-14759
‍	-14760
咀	-14761
虞	-14762
汞	-14763
涝	-14764
荟	-14765
媛	-14766
盎	-14767
兢	-14768
磋	-14769
豁	-14770
倘	-14771
魁	-14772
梵	-14773
渲	-14774
妄	-14775
藉	-14776
嗜	-14777
缤	-14778
臻	-14779
娅	-14780
牟	-14781
暇	-14782
※	-14783
嘅	-14784
囱	-14785
硒	-14786
冤	-14787
挨	-14788
碘	-14789
贿	-14790
樊	-14791
烛	-14792
笨	-14793
溺	-14794
耦	-14795
铵	-14796
乖	-14797
闵	-14798
俭	-14799
笛	-14800
楷	-14801
磺	-14802
棠	-14803
觅	-14804
α	-14805
烁	-14806
­	-14807
稚	-14808
β	-14809
肘	-14810
兜	-14811
恪	-14812
酌	-14813
颤	-14814
恕	-14815
钣	-14816
痤	-14817
苷	-14818
瘫	-14819
瑕	-14820
搓	-14821
韭	-14822
樟	-14823
恤	-14824
耿	-14825
皿	-14826
俞	-14827
弛	-14828
荨	-14829
簿	-14830
琢	-14831
峨	-14832
摧	-14833
耻	-14834
͏	-14835
庚	-14836
皖	-14837
蔗	-14838
鸽	-14839
钳	-14840
ç	-14841
黛	-14842
娥	-14843
煲	-14844
渭	-14845
锣	-14846
炳	-14847
筷	-14848
凳	-14849
麒	-14850
蝉	-14851
梢	-14852
颅	-14853
叭	-14854
呎	-14855
岚	-14856
汝	-14857
ш	-14858
瞒	-14859
窟	-14860
浚	-14861
毋	-14862
昕	-14863
梧	-14864
卒	-14865
淆	-14866
龈	-14867
晟	-14868
祀	-14869
鲤	-14870
倚	-14871
倩	-14872
钧	-14873
湃	-14874
檀	-14875
噬	-14876
肛	-14877
眷	-14878
笃	-14879
阱	-14880
娩	-14881
窥	-14882
П	-14883
罹	-14884
挛	-14885
玮	-14886
纾	-14887
媳	-14888
祁	-14889
邯	-14890
侃	-14891
吟	-14892
■	-14893
磕	-14894
蘑	-14895
睫	-14896
歪	-14897
啸	-14898
憩	-14899
鲸	-14900
哮	-14901
拢	-14902
俏	-14903
禧	-14904
町	-14905
颐	-14906
帧	-14907
耘	-14908
缕	-14909
憬	-14910
菁	-14911
沮	-14912
鲨	-14913
掷	-14914
嚣	-14915
戎	-14916
炙	-14917
蛙	-14918
濒	-14919
麓	-14920
滇	-14921
曙	-14922
憧	-14923
↓	-14924
蹲	-14925
巍	-14926
缚	-14927
搁	-14928
∶	-14929
狄	-14930
逮	-14931
栩	-14932
凋	-14933
蹦	-14934
尧	-14935
寥	-14936
腑	-14937
璨	-14938
糜	-14939
趾	-14940
钞	-14941
亟	-14942
ú	-14943
毡	-14944
殡	-14945
雍	-14946
鸦	-14947
犀	-14948
诫	-14949
铰	-14950
朔	-14951
桨	-14952
吋	-14953
捣	-14954
窍	-14955
郸	-14956
ф	-14957
睦	-14958
隋	-14959
凿	-14960
瘟	-14961
秃	-14962
瞧	-14963
楂	-14964
琉	-14965
蠢	-14966
袜	-14967
蜕	-14968
拇	-14969
璀	-14970
岂	-14971
痉	-14972
ю	-14973
芸	-14974
仆	-14975
娶	-14976
玺	-14977
佰	-14978
祠	-14979
诡	-14980
昱	-14981
掏	-14982
疣	-14983
缮	-14984
卦	-14985
璐	-14986
嗓	-14987
汾	-14988
骆	-14989
檐	-14990
颌	-14991
暮	-14992
盔	-14993
聂	-14994
钼	-14995
竿	-14996
冉	-14997
咤	-14998
槐	-14999
驼	-15000
孚	-15001
惬	-15002
镖	-15003
泣	-15004
猕	-15005
洼	-15006
ン	-15007
舜	-15008
嫂	-15009
矣	-15010
闺	-15011
睁	-15012
铆	-15013
陡	-15014
搪	-15015
茜	-15016
姊	-15017
蛀	-15018
钴	-15019
В	-15020
奸	-15021
ę	-15022
妒	-15023
溴	-15024
痹	-15025
陋	-15026
谍	-15027
钰	-15028
朽	-15029
娴	-15030
驴	-15031
汹	-15032
痊	-15033
聋	-15034
雏	-15035
驭	-15036
闫	-15037
呐	-15038
ą	-15039
礁	-15040
К	-15041
汶	-15042
藕	-15043
毂	-15044
锆	-15045
佬	-15046
啮	-15047
啰	-15048
荼	-15049
鳍	-15050
陇	-15051
疵	-15052
榕	-15053
榻	-15054
窜	-15055
慷	-15056
熠	-15057
绊	-15058
苟	-15059
劈	-15060
豚	-15061
桦	-15062
«	-15063
讳	-15064
跪	-15065
斧	-15066
揣	-15067
昧	-15068
羁	-15069
耸	-15070
兮	-15071
芥	-15072
譬	-15073
簇	-15074
⋯	-15075
禀	-15076
逅	-15077
晤	-15078
翟	-15079
僻	-15080
踝	-15081
鞠	-15082
邂	-15083
丞	-15084
堕	-15085
鳄	-15086
抉	-15087
眺	-15088
圃	-15089
屁	-15090
茉	-15091
弈	-15092
◎	-15093
漱	-15094
媲	-15095
茗	-15096
莆	-15097
臀	-15098
裴	-15099
č	-15100
懦	-15101
铮	-15102
庇	-15103
茸	-15104
渺	-15105
戳	-15106
萱	-15107
彪	-15108
嫉	-15109
氩	-15110
挝	-15111
咐	-15112
ã	-15113
痔	-15114
璇	-15115
缪	-15116
ā	-15117
烙	-15118
哇	-15119
蝇	-15120
炜	-15121
薰	-15122
炽	-15123
娓	-15124
蕊	-15125
瑚	-15126
冗	-15127
膺	-15128
Ω	-15129
嘎	-15130
馒	-15131
蚌	-15132
垛	-15133
拂	-15134
彝	-15135
殴	-15136
焉	-15137
悚	-15138
噩	-15139
脲	-15140
ا	-15141
い	-15142
寅	-15143
莘	-15144
瑙	-15145
祉	-15146
舅	-15147
蘸	-15148
蝎	-15149
鹃	-15150
掠	-15151
扒	-15152
蝠	-15153
哩	-15154
泾	-15155
腈	-15156
侥	-15157
ě	-15158
窒	-15159
匮	-15160
幂	-15161
嬉	-15162
厥	-15163
匡	-15164
贰	-15165
恺	-15166
戊	-15167
嘻	-15168
宕	-15169
拙	-15170
觑	-15171
秧	-15172
攒	-15173
蒿	-15174
哄	-15175
捍	-15176
绅	-15177
荞	-15178
淌	-15179
Φ	-15180
娄	-15181
锭	-15182
哉	-15183
屹	-15184
撬	-15185
ñ	-15186
虔	-15187
煞	-15188
杖	-15189
缉	-15190
凄	-15191
璧	-15192
坷	-15193
唾	-15194
怯	-15195
狸	-15196
坟	-15197
粱	-15198
瞰	-15199
衢	-15200
俐	-15201
菏	-15202
乍	-15203
悼	-15204
鳌	-15205
腱	-15206
蝙	-15207
徊	-15208
鸥	-15209
唑	-15210
茹	-15211
镉	-15212
峭	-15213
绥	-15214
缭	-15215
亥	-15216
镂	-15217
篆	-15218
А	-15219
咕	-15220
榈	-15221
穹	-15222
徘	-15223
犁	-15224
▼	-15225
Н	-15226
咯	-15227
嘘	-15228
屉	-15229
悸	-15230
Р	-15231
姥	-15232
沽	-15233
札	-15234
绰	-15235
š	-15236
颊	-15237
叁	-15238
峪	-15239
绮	-15240
蚝	-15241
螃	-15242
垮	-15243
趴	-15244
撇	-15245
摒	-15246
谛	-15247
坂	-15248
囚	-15249
唔	-15250
哗	-15251
М	-15252
€	-15253
剃	-15254
苓	-15255
铠	-15256
桁	-15257
廿	-15258
	-15259
篡	-15260
辗	-15261
螂	-15262
岑	-15263
陨	-15264
矾	-15265
¥	-15266
颓	-15267
瞳	-15268
嗨	-15269
涕	-15270
滔	-15271
拷	-15272
帼	-15273
寮	-15274
窘	-15275
琶	-15276
爹	-15277
坍	-15278
跋	-15279
祺	-15280
螨	-15281
砷	-15282
懿	-15283
恬	-15284
楔	-15285
韬	-15286
恍	-15287
ż	-15288
驯	-15289
搐	-15290
羧	-15291
姗	-15292
鹕	-15293
绯	-15294
鹈	-15295
篱	-15296
☆	-15297
褶	-15298
薏	-15299
蹭	-15300
泓	-15301
枉	-15302
谬	-15303
扼	-15304
氦	-15305
烨	-15306
黯	-15307
俨	-15308
漩	-15309
墟	-15310
珑	-15311
峥	-15312
忏	-15313
涧	-15314
璋	-15315
岐	-15316
钵	-15317
痪	-15318
咙	-15319
し	-15320
髦	-15321
俘	-15322
煅	-15323
猩	-15324
淫	-15325
ß	-15326
乞	-15327
鹭	-15328
玖	-15329
阎	-15330
濮	-15331
ś	-15332
囤	-15333
茯	-15334
谧	-15335
羹	-15336
垣	-15337
躬	-15338
苞	-15339
ス	-15340
骇	-15341
炊	-15342
蹴	-15343
吼	-15344
匝	-15345
芍	-15346
迥	-15347
φ	-15348
ї	-15349
煜	-15350
锵	-15351
铿	-15352
挟	-15353
懵	-15354
ž	-15355
に	-15356
霓	-15357
晏	-15358
焖	-15359
邨	-15360
寇	-15361
丨	-15362
曳	-15363
膛	-15364
莺	-15365
尉	-15366
る	-15367
宸	-15368
岔	-15369
丫	-15370
茧	-15371
咋	-15372
ò	-15373
Б	-15374
伶	-15375
た	-15376
龋	-15377
膊	-15378
烊	-15379
诙	-15380
酝	-15381
イ	-15382
幺	-15383
鞘	-15384
芷	-15385
颚	-15386
睑	-15387
ل	-15388
汐	-15389
扦	-15390
嗯	-15391
と	-15392
粳	-15393
芪	-15394
糠	-15395
箍	-15396
砾	-15397
襟	-15398
憎	-15399
砚	-15400
ル	-15401
禺	-15402
耙	-15403
歼	-15404
纫	-15405
泗	-15406
祢	-15407
贱	-15408
迸	-15409
惶	-15410
蛳	-15411
Д	-15412
ă	-15413
炔	-15414
晗	-15415
芃	-15416
ì	-15417
慑	-15418
猿	-15419
筐	-15420
鹊	-15421
凛	-15422
慜	-15423
莽	-15424
拽	-15425
庵	-15426
钡	-15427
丶	-15428
ř	-15429
桓	-15430
琥	-15431
瞎	-15432
踵	-15433
粟	-15434
屎	-15435
蟑	-15436
谴	-15437
É	-15438
↑	-15439
寰	-15440
О	-15441
щ	-15442
匾	-15443
诣	-15444
赘	-15445
侮	-15446
饵	-15447
恃	-15448
熨	-15449
胳	-15450
嫦	-15451
烽	-15452
砼	-15453
漾	-15454
镗	-15455
憨	-15456
磐	-15457
刁	-15458
猝	-15459
斓	-15460
蜒	-15461
焯	-15462
Ф	-15463
礴	-15464
痿	-15465
皋	-15466
幌	-15467
蜿	-15468
ј	-15469
喃	-15470
逍	-15471
啼	-15472
眶	-15473
呤	-15474
な	-15475
舵	-15476
瑾	-15477
榔	-15478
佟	-15479
秽	-15480
戟	-15481
嘟	-15482
荤	-15483
辙	-15484
隅	-15485
嫣	-15486
徙	-15487
袂	-15488
隽	-15489
â	-15490
藩	-15491
哆	-15492
疚	-15493
峦	-15494
湄	-15495
ト	-15496
哔	-15497
遐	-15498
毓	-15499
葩	-15500
眸	-15501
侄	-15502
憋	-15503
戛	-15504
ý	-15505
悯	-15506
潼	-15507
痢	-15508
匣	-15509
羲	-15510
燊	-15511
蛤	-15512
朦	-15513
岱	-15514
啃	-15515
骋	-15516
喱	-15517
钒	-15518
酗	-15519
洙	-15520
胧	-15521
葆	-15522
哟	-15523
喵	-15524
羚	-15525
诲	-15526
晦	-15527
搔	-15528
捻	-15529
衅	-15530
漯	-15531
褒	-15532
ø	-15533
僚	-15534
惋	-15535
鄙	-15536
眨	-15537
摹	-15538
ê	-15539
袱	-15540
珈	-15541
槌	-15542
擞	-15543
纂	-15544
嗣	-15545
婧	-15546
瞪	-15547
琛	-15548
邸	-15549
吏	-15550
赡	-15551
翌	-15552
て	-15553
骸	-15554
砝	-15555
琵	-15556
峙	-15557
豌	-15558
ま	-15559
侪	-15560
狩	-15561
裱	-15562
棺	-15563
濑	-15564
炯	-15565
嚏	-15566
歹	-15567
涟	-15568
△	-15569
酣	-15570
邃	-15571
馥	-15572
岌	-15573
揪	-15574
Т	-15575
蛎	-15576
吡	-15577
ī	-15578
俪	-15579
璞	-15580
滁	-15581
髋	-15582
潺	-15583
痂	-15584
栾	-15585
瓯	-15586
曜	-15587
圩	-15588
卯	-15589
寐	-15590
鱿	-15591
吝	-15592
婪	-15593
す	-15594
狙	-15595
Г	-15596
粕	-15597
茬	-15598
徕	-15599
を	-15600
斟	-15601
は	-15602
嘿	-15603
辄	-15604
辍	-15605
玥	-15606
纭	-15607
抨	-15608
叨	-15609
捂	-15610
荃	-15611
苇	-15612
轼	-15613
掖	-15614
蔷	-15615
厝	-15616
ラ	-15617
湍	-15618
か	-15619
鲲	-15620
藜	-15621
暧	-15622
で	-15623
孪	-15624
淼	-15625
椿	-15626
葚	-15627
驹	-15628
撩	-15629
婿	-15630
裳	-15631
飓	-15632
晔	-15633
厮	-15634
麸	-15635
斛	-15636
昵	-15637
擂	-15638
擒	-15639
嬷	-15640
赃	-15641
鳗	-15642
喆	-15643
霹	-15644
彗	-15645
阖	-15646
扉	-15647
祐	-15648
螯	-15649
镰	-15650
️	-15651
稼	-15652
诏	-15653
喺	-15654
涪	-15655
阈	-15656
珞	-15657
珂	-15658
戌	-15659
跤	-15660
剁	-15661
甬	-15662
酐	-15663
が	-15664
ん	-15665
瑛	-15666
忻	-15667
靳	-15668
咚	-15669
〇	-15670
涎	-15671
γ	-15672
嵘	-15673
殆	-15674
缜	-15675
咫	-15676
祯	-15677
И	-15678
沌	-15679
ア	-15680
谤	-15681
沱	-15682
啶	-15683
亳	-15684
谚	-15685
杷	-15686
雳	-15687
呗	-15688
壬	-15689
镯	-15690
ć	-15691
嘌	-15692
ù	-15693
́	-15694
枇	-15695
飨	-15696
う	-15697
芮	-15698
跆	-15699
ń	-15700
ク	-15701
哼	-15702
岖	-15703
轶	-15704
呛	-15705
█	-15706
毙	-15707
羯	-15708
婕	-15709
竺	-15710
哎	-15711
瀛	-15712
冢	-15713
戮	-15714
り	-15715
リ	-15716
蛾	-15717
ô	-15718
攘	-15719
阑	-15720
腮	-15721
咎	-15722
榫	-15723
敖	-15724
萦	-15725
铎	-15726
У	-15727
蓓	-15728
庶	-15729
渥	-15730
浒	-15731
铀	-15732
飒	-15733
奂	-15734
叩	-15735
撷	-15736
饕	-15737
褥	-15738
钎	-15739
萼	-15740
冇	-15741
笙	-15742
诅	-15743
簸	-15744
嘹	-15745
珐	-15746
棣	-15747
溧	-15748
鞣	-15749
妞	-15750
漪	-15751
勐	-15752
涓	-15753
Л	-15754
佢	-15755
煦	-15756
陂	-15757
彷	-15758
钊	-15759
掐	-15760
拎	-15761
蛟	-15762
虏	-15763
ō	-15764
赦	-15765
郴	-15766
淅	-15767
偕	-15768
噜	-15769
孽	-15770
翊	-15771
覃	-15772
坜	-15773
懊	-15774
蕃	-15775
熹	-15776
罄	-15777
谙	-15778
咧	-15779
疙	-15780
ё	-15781
砧	-15782
裘	-15783
兀	-15784
矗	-15785
蛰	-15786
孰	-15787
馍	-15788
臼	-15789
藓	-15790
î	-15791
瘩	-15792
疝	-15793
缎	-15794
蜢	-15795
撮	-15796
锑	-15797
皈	-15798
婺	-15799
踞	-15800
昀	-15801
恣	-15802
茱	-15803
矸	-15804
嗡	-15805
濡	-15806
羔	-15807
讴	-15808
鄱	-15809
籁	-15810
钯	-15811
镐	-15812
诟	-15813
愣	-15814
嘶	-15815
姣	-15816
嘈	-15817
遁	-15818
啪	-15819
睇	-15820
胤	-15821
忡	-15822
吩	-15823
疟	-15824
‰	-15825
笠	-15826
迩	-15827
袅	-15828
钕	-15829
筱	-15830
こ	-15831
俑	-15832
玑	-15833
唠	-15834
莠	-15835
鲫	-15836
蕙	-15837
ǎ	-15838
沅	-15839
辕	-15840
掰	-15841
栀	-15842
涿	-15843
臧	-15844
蓟	-15845
镭	-15846
惭	-15847
淞	-15848
ら	-15849
攸	-15850
悖	-15851
夭	-15852
鹦	-15853
奚	-15854
م	-15855
ي	-15856
怼	-15857
阙	-15858
昙	-15859
骅	-15860
渎	-15861
郫	-15862
雹	-15863
涮	-15864
莴	-15865
蚤	-15866
←	-15867
沓	-15868
霏	-15869
呱	-15870
侏	-15871
脯	-15872
捅	-15873
翱	-15874
疸	-15875
枭	-15876
榛	-15877
芡	-15878
鲈	-15879
蛭	-15880
氪	-15881
虱	-15882
粼	-15883
腩	-15884
ر	-15885
皙	-15886
宥	-15887
祎	-15888
绢	-15889
诬	-15890
狡	-15891
瘢	-15892
蹊	-15893
颍	-15894
瓢	-15895
麾	-15896
崂	-15897
煽	-15898
浔	-15899
赓	-15900
赂	-15901
隘	-15902
æ	-15903
贻	-15904
き	-15905
ъ	-15906
炅	-15907
旻	-15908
镌	-15909
蔻	-15910
◇	-15911
ő	-15912
ㄧ	-15913
鸠	-15914
ッ	-15915
癞	-15916
蕨	-15917
麝	-15918
哒	-15919
苋	-15920
唉	-15921
怅	-15922
侬	-15923
茴	-15924
亘	-15925
眯	-15926
拮	-15927
ē	-15928
蔼	-15929
荚	-15930
仟	-15931
倔	-15932
裨	-15933
愫	-15934
诽	-15935
さ	-15936
冽	-15937
喑	-15938
徉	-15939
く	-15940
诛	-15941
徜	-15942
煸	-15943
皑	-15944
玟	-15945
玷	-15946
蒡	-15947
槃	-15948
噢	-15949
锾	-15950
⁄	-15951
楹	-15952
÷	-15953
墒	-15954
咔	-15955
榭	-15956
褚	-15957
菅	-15958
鹉	-15959
呋	-15960
З	-15961
蕲	-15962
璟	-15963
渚	-15964
豉	-15965
呦	-15966
糅	-15967
吱	-15968
淖	-15969
岷	-15970
楣	-15971
帚	-15972
缨	-15973
樽	-15974
邕	-15975
啬	-15976
铢	-15977
佘	-15978
涸	-15979
燎	-15980
蜻	-15981
鸳	-15982
阂	-15983
馋	-15984
あ	-15985
侗	-15986
筏	-15987
ن	-15988
ë	-15989
唷	-15990
噱	-15991
酉	-15992
ド	-15993
も	-15994
擀	-15995
锲	-15996
潞	-15997
恙	-15998
泞	-15999
蜓	-16000
睽	-16001
遨	-16002
撸	-16003
氓	-16004
鸯	-16005
氙	-16006
跷	-16007
锄	-16008
و	-16009
弭	-16010
甾	-16011
れ	-16012
馁	-16013
呜	-16014
ș	-16015
惮	-16016
汴	-16017
缇	-16018
溏	-16019
袤	-16020
瘠	-16021
苒	-16022
タ	-16023
犷	-16024
π	-16025
饽	-16026
稞	-16027
シ	-16028
妓	-16029
烬	-16030
毽	-16031
漕	-16032
瞿	-16033
−	-16034
壑	-16035
甙	-16036
盂	-16037
轭	-16038
衙	-16039
鳃	-16040
妾	-16041
柒	-16042
э	-16043
痞	-16044
坩	-16045
徨	-16046
谕	-16047
筠	-16048
丐	-16049
铉	-16050
惺	-16051
谏	-16052
桧	-16053
孳	-16054
辫	-16055
擘	-16056
捺	-16057
沣	-16058
咗	-16059
埚	-16060
っ	-16061
唏	-16062
讥	-16063
脍	-16064
掳	-16065
ω	-16066
傣	-16067
殉	-16068
宦	-16069
绫	-16070
蜈	-16071
є	-16072
粑	-16073
蹬	-16074
骥	-16075
鳝	-16076
ロ	-16077
剿	-16078
儋	-16079
惚	-16080
垠	-16081
σ	-16082
俺	-16083
瓮	-16084
萘	-16085
隼	-16086
嗦	-16087
旌	-16088
瑄	-16089
郜	-16090
珉	-16091
癖	-16092
蚓	-16093
腓	-16094
疽	-16095
讷	-16096
荏	-16097
樵	-16098
铨	-16099
〜	-16100
亵	-16101
橇	-16102
慵	-16103
蟠	-16104
胫	-16105
叱	-16106
苁	-16107
伫	-16108
囧	-16109
镓	-16110
►	-16111
跖	-16112
邬	-16113
螫	-16114
叽	-16115
歆	-16116
鹑	-16117
骊	-16118
啉	-16119
嘀	-16120
醌	-16121
伎	-16122
咲	-16123
鲑	-16124
ジ	-16125
谆	-16126
骶	-16127
フ	-16128
焱	-16129
蟒	-16130
啧	-16131
惦	-16132
焗	-16133
弋	-16134
惘	-16135
沭	-16136
篦	-16137
巿	-16138
蜥	-16139
姝	-16140
蔑	-16141
芊	-16142
旖	-16143
荀	-16144
琊	-16145
犊	-16146
カ	-16147
桅	-16148
箴	-16149
俾	-16150
荠	-16151
莒	-16152
骛	-16153
蚯	-16154
お	-16155
嗝	-16156
癸	-16157
迢	-16158
皎	-16159
λ	-16160
绛	-16161
鹌	-16162
幡	-16163
噶	-16164
貂	-16165
鼾	-16166
嚷	-16167
诧	-16168
拈	-16169
Ü	-16170
δ	-16171
啄	-16172
瞥	-16173
蝗	-16174
遛	-16175
ǐ	-16176
マ	-16177
逞	-16178
巳	-16179
铛	-16180
ū	-16181
鸢	-16182
岘	-16183
栉	-16184
ț	-16185
苣	-16186
赈	-16187
濠	-16188
剽	-16189
猖	-16190
胥	-16191
鏖	-16192
ρ	-16193
肮	-16194
レ	-16195
隍	-16196
搽	-16197
眈	-16198
忐	-16199
稷	-16200
蚣	-16201
闰	-16202
嫡	-16203
忑	-16204
搀	-16205
Ö	-16206
谌	-16207
苡	-16208
赧	-16209
偃	-16210
滦	-16211
饯	-16212
迂	-16213
膈	-16214
婵	-16215
蜚	-16216
旎	-16217
诃	-16218
嬴	-16219
灏	-16220
み	-16221
祟	-16222
埗	-16223
埕	-16224
涣	-16225
荥	-16226
胭	-16227
喋	-16228
嗒	-16229
噻	-16230
迳	-16231
珩	-16232
藿	-16233
桉	-16234
铑	-16235
ů	-16236
̇	-16237
奄	-16238
ち	-16239
钗	-16240
鳕	-16241
抠	-16242
骞	-16243
鄞	-16244
懋	-16245
灞	-16246
睢	-16247
舔	-16248
ο	-16249
檩	-16250
邛	-16251
箕	-16252
√	-16253
ε	-16254
桢	-16255
挞	-16256
娲	-16257
榉	-16258
锹	-16259
鬓	-16260
ب	-16261
砜	-16262
帛	-16263
惆	-16264
拴	-16265
桀	-16266
餮	-16267
け	-16268
枷	-16269
溥	-16270
蟾	-16271
篝	-16272
镳	-16273
鳖	-16274
蛹	-16275
铌	-16276
›	-16277
蔺	-16278
テ	-16279
潦	-16280
脘	-16281
ı	-16282
Е	-16283
泷	-16284
卞	-16285
耆	-16286
讹	-16287
颞	-16288
镦	-16289
笆	-16290
洮	-16291
痧	-16292
龛	-16293
芎	-16294
箫	-16295
猬	-16296
苜	-16297
蓿	-16298
咁	-16299
蚜	-16300
艮	-16301
喳	-16302
§	-16303
嗪	-16304
娑	-16305
叟	-16306
殃	-16307
髙	-16308
▪	-16309
掣	-16310
瞅	-16311
د	-16312
オ	-16313
ت	-16314
谥	-16315
浣	-16316
珺	-16317
羿	-16318
嬛	-16319
昶	-16320
翎	-16321
鳅	-16322
膦	-16323
つ	-16324
偎	-16325
臆	-16326
阆	-16327
妩	-16328
畲	-16329
诿	-16330
栎	-16331
琨	-16332
喽	-16333
陛	-16334
飚	-16335
兖	-16336
悴	-16337
钽	-16338
郅	-16339
搂	-16340
曩	-16341
銮	-16342
õ	-16343
埤	-16344
啲	-16345
璜	-16346
τ	-16347
嘧	-16348
猥	-16349
簪	-16350
Х	-16351
烩	-16352
暄	-16353
麋	-16354
ミ	-16355
壕	-16356
憔	-16357
哽	-16358
瞭	-16359
矜	-16360
捎	-16361
Δ	-16362
ニ	-16363
霁	-16364
コ	-16365
妤	-16366
│	-16367
趸	-16368
饨	-16369
娣	-16370
浜	-16371
氡	-16372
咄	-16373
邳	-16374
桎	-16375
锉	-16376
猾	-16377
痈	-16378
Ø	-16379
槿	-16380
嵊	-16381
丕	-16382
馄	-16383
喹	-16384
垩	-16385
谒	-16386
邺	-16387
祇	-16388
遽	-16389
Ш	-16390
塬	-16391
梏	-16392
泱	-16393
偈	-16394
泯	-16395
缈	-16396
ν	-16397
拗	-16398
柞	-16399
燮	-16400
崽	-16401
琰	-16402
笺	-16403
ï	-16404
キ	-16405
壅	-16406
骷	-16407
ع	-16408
袄	-16409
怦	-16410
腭	-16411
ィ	-16412
屌	-16413
敝	-16414
‐	-16415
幔	-16416
挹	-16417
髅	-16418
佗	-16419
垭	-16420
缥	-16421
柘	-16422
袒	-16423
堇	-16424
芩	-16425
锶	-16426
捶	-16427
狈	-16428
篓	-16429
赟	-16430
蠡	-16431
埂	-16432
舀	-16433
Ч	-16434
鹜	-16435
猷	-16436
筵	-16437
唆	-16438
奘	-16439
瓴	-16440
阡	-16441
螳	-16442
纣	-16443
铟	-16444
笈	-16445
煨	-16446
羰	-16447
骐	-16448
枞	-16449
甥	-16450
よ	-16451
サ	-16452
吮	-16453
萜	-16454
ˋ	-16455
塾	-16456
坨	-16457
畿	-16458
爰	-16459
讫	-16460
プ	-16461
怂	-16462
牦	-16463
ه	-16464
剌	-16465
碚	-16466
郧	-16467
幄	-16468
Á	-16469
メ	-16470
匍	-16471
ǔ	-16472
س	-16473
粿	-16474
醴	-16475
ㄨ	-16476
婀	-16477
辘	-16478
黝	-16479
ة	-16480
孺	-16481
璎	-16482
歙	-16483
埼	-16484
嶂	-16485
杵	-16486
漉	-16487
偌	-16488
だ	-16489
枳	-16490
踌	-16491
嗔	-16492
珮	-16493
이	-16494
盅	-16495
蛊	-16496
缙	-16497
躇	-16498
魇	-16499
〞	-16500
堀	-16501
褂	-16502
暹	-16503
嚎	-16504
铋	-16505
伉	-16506
偻	-16507
弩	-16508
扈	-16509
仄	-16510
呷	-16511
睬	-16512
❤	-16513
佚	-16514
黍	-16515
η	-16516
バ	-16517
ナ	-16518
梆	-16519
獗	-16520
锢	-16521
咛	-16522
咆	-16523
朕	-16524
夙	-16525
驮	-16526
苫	-16527
ウ	-16528
涞	-16529
崴	-16530
镊	-16531
ャ	-16532
ι	-16533
崃	-16534
卅	-16535
噌	-16536
锗	-16537
冼	-16538
匐	-16539
莪	-16540
蟀	-16541
泠	-16542
蟋	-16543
掂	-16544
铍	-16545
鸾	-16546
谩	-16547
陲	-16548
า	-16549
戍	-16550
澧	-16551
菖	-16552
碉	-16553
腆	-16554
╱	-16555
坳	-16556
〗	-16557
畦	-16558
萸	-16559
鲢	-16560
吠	-16561
ズ	-16562
デ	-16563
ा	-16564
籼	-16565
ブ	-16566
岬	-16567
窿	-16568
チ	-16569
婶	-16570
掬	-16571
颉	-16572
〖	-16573
罔	-16574
腼	-16575
谲	-16576
颧	-16577
唧	-16578
澍	-16579
蹿	-16580
椹	-16581
滘	-16582
斡	-16583
榷	-16584
え	-16585
碁	-16586
刍	-16587
劵	-16588
嫔	-16589
芈	-16590
谟	-16591
グ	-16592
徇	-16593
蓦	-16594
ム	-16595
嗑	-16596
遑	-16597
呃	-16598
佝	-16599
戬	-16600
エ	-16601
や	-16602
蜷	-16603
雉	-16604
鲶	-16605
稔	-16606
瞌	-16607
蜇	-16608
蹋	-16609
蜴	-16610
獭	-16611
め	-16612
砰	-16613
倭	-16614
朐	-16615
瘁	-16616
诋	-16617
俸	-16618
沏	-16619
肱	-16620
Š	-16621
∼	-16622
吆	-16623
潴	-16624
舷	-16625
骡	-16626
鲅	-16627
わ	-16628
罡	-16629
踔	-16630
轲	-16631
ダ	-16632
啜	-16633
枋	-16634
瘪	-16635
藐	-16636
鲔	-16637
ˊ	-16638
珏	-16639
诘	-16640
髻	-16641
洵	-16642
臃	-16643
酊	-16644
鎏	-16645
⊙	-16646
滢	-16647
珲	-16648
荻	-16649
铤	-16650
喙	-16651
愕	-16652
炀	-16653
胯	-16654
蚵	-16655
胍	-16656
醺	-16657
岫	-16658
鄢	-16659
湮	-16660
綦	-16661
觊	-16662
豇	-16663
咩	-16664
焓	-16665
舫	-16666
パ	-16667
樾	-16668
诩	-16669
♥	-16670
そ	-16671
湟	-16672
ュ	-16673
疥	-16674
瘘	-16675
碣	-16676
弼	-16677
妲	-16678
膻	-16679
跛	-16680
揍	-16681
贲	-16682
窨	-16683
翀	-16684
觎	-16685
َ	-16686
浃	-16687
犒	-16688
怙	-16689
蕞	-16690
泔	-16691
ی	-16692
擢	-16693
阚	-16694
氲	-16695
濯	-16696
蜊	-16697
瓤	-16698
碴	-16699
苄	-16700
骜	-16701
熵	-16702
篑	-16703
〝	-16704
瞠	-16705
せ	-16706
ビ	-16707
濂	-16708
ǒ	-16709
氤	-16710
缄	-16711
弑	-16712
旸	-16713
讧	-16714
鲟	-16715
舸	-16716
硐	-16717
𫖯	-16718
踹	-16719
Č	-16720
滓	-16721
锏	-16722
赊	-16723
揾	-16724
鹫	-16725
桡	-16726
嗤	-16727
峇	-16728
磡	-16729
盱	-16730
荸	-16731
菓	-16732
蓖	-16733
蔫	-16734
骰	-16735
邝	-16736
坻	-16737
忒	-16738
崧	-16739
谑	-16740
靛	-16741
巯	-16742
掸	-16743
咦	-16744
痱	-16745
茭	-16746
唬	-16747
牍	-16748
じ	-16749
哋	-16750
盥	-16751
Å	-16752
讪	-16753
髂	-16754
љ	-16755
煊	-16756
蹶	-16757
霎	-16758
†	-16759
≈	-16760
叻	-16761
巽	-16762
蘖	-16763
邈	-16764
θ	-16765
吭	-16766
鬃	-16767
殇	-16768
炕	-16769
忿	-16770
晞	-16771
眙	-16772
砟	-16773
膘	-16774
ど	-16775
∕	-16776
嗳	-16777
蹒	-16778
葺	-16779
遒	-16780
馔	-16781
觐	-16782
🙂	-16783
堑	-16784
峒	-16785
槭	-16786
丼	-16787
戾	-16788
І	-16789
婢	-16790
¢	-16791
ð	-16792
Э	-16793
敕	-16794
ف	-16795
葳	-16796
鲳	-16797
庾	-16798
芘	-16799
蜃	-16800
鹳	-16801
ろ	-16802
蚩	-16803
娆	-16804
羸	-16805
貔	-16806
κ	-16807
誊	-16808
∞	-16809
啖	-16810
嚟	-16811
嬅	-16812
攫	-16813
蒽	-16814
崁	-16815
跚	-16816
茏	-16817
邋	-16818
蛔	-16819
崀	-16820
纨	-16821
￼	-16822
्	-16823
晁	-16824
赅	-16825
र	-16826
噎	-16827
耒	-16828
芾	-16829
〓	-16830
哚	-16831
ş	-16832
傀	-16833
犍	-16834
椴	-16835
鲷	-16836
啾	-16837
貅	-16838
鲛	-16839
鹄	-16840
琍	-16841
嗷	-16842
汨	-16843
瘴	-16844
胛	-16845
琮	-16846
畊	-16847
砻	-16848
谯	-16849
氖	-16850
ق	-16851
匕	-16852
牒	-16853
น	-16854
儡	-16855
遢	-16856
鳜	-16857
ร	-16858
ς	-16859
侑	-16860
霈	-16861
糍	-16862
菡	-16863
蓁	-16864
扪	-16865
纰	-16866
腴	-16867
噗	-16868
潟	-16869
踮	-16870
菟	-16871
麂	-16872
凇	-16873
砀	-16874
獒	-16875
筚	-16876
モ	-16877
囿	-16878
盹	-16879
逵	-16880
摁	-16881
饴	-16882
蚪	-16883
觞	-16884
狞	-16885
ガ	-16886
劾	-16887
劭	-16888
碇	-16889
爻	-16890
蝮	-16891
镕	-16892
Σ	-16893
њ	-16894
俚	-16895
跎	-16896
叼	-16897
囡	-16898
垚	-16899
浐	-16900
溱	-16901
疖	-16902
セ	-16903
鳟	-16904
☑	-16905
孑	-16906
湳	-16907
郓	-16908
鲭	-16909
拄	-16910
淦	-16911
绶	-16912
瘸	-16913
祜	-16914
▶	-16915
蹉	-16916
霭	-16917
ˇ	-16918
汆	-16919
聿	-16920
驸	-16921
ハ	-16922
夔	-16923
攥	-16924
蝌	-16925
铱	-16926
ノ	-16927
呻	-16928
堃	-16929
绀	-16930
挎	-16931
杳	-16932
다	-16933
畀	-16934
ョ	-16935
嫖	-16936
澹	-16937
窈	-16938
馗	-16939
泫	-16940
犸	-16941
渑	-16942
仝	-16943
佃	-16944
崮	-16945
箩	-16946
恿	-16947
荪	-16948
아	-16949
墉	-16950
郯	-16951
钏	-16952
Ž	-16953
न	-16954
‬	-16955
嚓	-16956
楫	-16957
饷	-16958
ź	-16959
勠	-16960
汩	-16961
皴	-16962
辋	-16963
∩	-16964
洄	-16965
秭	-16966
尕	-16967
捋	-16968
吲	-16969
掇	-16970
撂	-16971
濉	-16972
虢	-16973
唢	-16974
赭	-16975
ゆ	-16976
郾	-16977
髌	-16978
鬟	-16979
殒	-16980
狰	-16981
肼	-16982
♀	-16983
咭	-16984
孖	-16985
楸	-16986
舛	-16987
镧	-16988
邰	-16989
ご	-16990
獐	-16991
芫	-16992
蟆	-16993
Ц	-16994
嘢	-16995
岀	-16996
邗	-16997
埭	-16998
摞	-16999
迤	-17000
क	-17001
ひ	-17002
捌	-17003
蜱	-17004
ि	-17005
铐	-17006
阉	-17007
	-17008
Α	-17009
་	-17010
ァ	-17011
晌	-17012
蹂	-17013
傩	-17014
恻	-17015
臾	-17016
ツ	-17017
瘜	-17018
鸵	-17019
ม	-17020
∙	-17021
姹	-17022
淙	-17023
醪	-17024
闾	-17025
ج	-17026
酞	-17027
∮	-17028
裟	-17029
々	-17030
ㄟ	-17031
畈	-17032
ح	-17033
惴	-17034
梿	-17035
躏	-17036
े	-17037
厩	-17038
涠	-17039
燧	-17040
釆	-17041
陉	-17042
	-17043
檗	-17044
窕	-17045
Я	-17046
赝	-17047
鼬	-17048
噼	-17049
嶙	-17050
颢	-17051
缰	-17052
蚬	-17053
가	-17054
刈	-17055
铧	-17056
颔	-17057
ğ	-17058
Ś	-17059
อ	-17060
藁	-17061
黉	-17062
朊	-17063
抿	-17064
祚	-17065
绌	-17066
하	-17067
ə	-17068
岙	-17069
诰	-17070
佯	-17071
炝	-17072
莳	-17073
锟	-17074
鞅	-17075
ェ	-17076
峋	-17077
碲	-17078
啫	-17079
磬	-17080
苕	-17081
醅	-17082
铄	-17083
仞	-17084
峁	-17085
坭	-17086
箐	-17087
仨	-17088
胄	-17089
蒴	-17090
ी	-17091
槎	-17092
绦	-17093
増	-17094
嬿	-17095
褓	-17096
υ	-17097
ケ	-17098
衮	-17099
袈	-17100
隈	-17101
徬	-17102
醍	-17103
飕	-17104
孱	-17105
浉	-17106
绔	-17107
𠮶	-17108
悭	-17109
氘	-17110
痼	-17111
佤	-17112
钌	-17113
시	-17114
Ж	-17115
哌	-17116
嗖	-17117
荽	-17118
醮	-17119
▍	-17120
亰	-17121
谪	-17122
颛	-17123
仃	-17124
酩	-17125
嵇	-17126
痨	-17127
硚	-17128
铈	-17129
ѕ	-17130
่	-17131
彧	-17132
镛	-17133
한	-17134
̄	-17135
髯	-17136
磴	-17137
跬	-17138
Ó	-17139
ば	-17140
ネ	-17141
徳	-17142
摈	-17143
茼	-17144
ك	-17145
唁	-17146
孀	-17147
槲	-17148
茍	-17149
蛐	-17150
肟	-17151
蓼	-17152
ű	-17153
㓥	-17154
倏	-17155
褛	-17156
י	-17157
珙	-17158
	-17159
ย	-17160
俟	-17161
瓿	-17162
痍	-17163
苴	-17164
♦	-17165
昴	-17166
畑	-17167
裆	-17168
钇	-17169
硖	-17170
郦	-17171
桠	-17172
≧	-17173
搡	-17174
祗	-17175
蜍	-17176
び	-17177
사	-17178
陟	-17179
埇	-17180
峤	-17181
赉	-17182
歩	-17183
膑	-17184
跄	-17185
郢	-17186
埸	-17187
👍	-17188
昉	-17189
窠	-17190
∠	-17191
ず	-17192
恸	-17193
雎	-17194
滂	-17195
罘	-17196
정	-17197
	-17198
ξ	-17199
娼	-17200
踉	-17201
骠	-17202
崆	-17203
耄	-17204
臊	-17205
謇	-17206
Ä	-17207
亓	-17208
杓	-17209
棂	-17210
鄄	-17211
颦	-17212
黟	-17213
笏	-17214
肓	-17215
钹	-17216
塭	-17217
瞋	-17218
钤	-17219
馐	-17220
เ	-17221
剐	-17222
嬗	-17223
庖	-17224
珅	-17225
서	-17226
₹	-17227
≡	-17228
戦	-17229
犇	-17230
篙	-17231
Ю	-17232
ㄅ	-17233
叡	-17234
垅	-17235
宓	-17236
翳	-17237
镬	-17238
	-17239
殓	-17240
潸	-17241
礡	-17242
蓥	-17243
泮	-17244
驷	-17245
琏	-17246
谵	-17247
耋	-17248
蹩	-17249
≠	-17250
へ	-17251
怔	-17252
抡	-17253
昺	-17254
咂	-17255
踱	-17256
ぷ	-17257
柩	-17258
琬	-17259
闱	-17260
黒	-17261
橹	-17262
糗	-17263
谔	-17264
龅	-17265
ポ	-17266
峮	-17267
蓑	-17268
锴	-17269
에	-17270
ζ	-17271
ก	-17272
簌	-17273
擤	-17274
蚱	-17275
镒	-17276
ش	-17277
卟	-17278
疃	-17279
苎	-17280
骈	-17281
ワ	-17282
嵴	-17283
니	-17284
의	-17285
ザ	-17286
馕	-17287
鸪	-17288
ゃ	-17289
來	-17290
甑	-17291
肄	-17292
Đ	-17293
県	-17294
绻	-17295
鲱	-17296
أ	-17297
乜	-17298
魑	-17299
俳	-17300
悌	-17301
杈	-17302
珥	-17303
襁	-17304
蠊	-17305
ㄢ	-17306
尻	-17307
殚	-17308
跺	-17309
钺	-17310
铡	-17311
ベ	-17312
峄	-17313
椁	-17314
沤	-17315
薅	-17316
鄠	-17317
颀	-17318
≦	-17319
炷	-17320
猗	-17321
纮	-17322
芗	-17323
矽	-17324
筲	-17325
艋	-17326
萋	-17327
ね	-17328
倜	-17329
嗟	-17330
気	-17331
诤	-17332
醐	-17333
기	-17334
나	-17335
đ	-17336
ㄒ	-17337
竽	-17338
糬	-17339
讣	-17340
诶	-17341
는	-17342
χ	-17343
咿	-17344
圻	-17345
氹	-17346
锒	-17347
鸮	-17348
鹂	-17349
∑	-17350
ㄇ	-17351
柢	-17352
轫	-17353
榖	-17354
瑠	-17355
黜	-17356
İ	-17357
椽	-17358
缱	-17359
蝼	-17360
로	-17361
ز	-17362
ั	-17363
瓒	-17364
蛆	-17365
褫	-17366
铯	-17367
颡	-17368
स	-17369
嵋	-17370
滟	-17371
觥	-17372
ล	-17373
ピ	-17374
傥	-17375
嗲	-17376
桕	-17377
钿	-17378
鲎	-17379
지	-17380
燔	-17381
蛏	-17382
铼	-17383
鳙	-17384
鹧	-17385
ท	-17386
佶	-17387
傈	-17388
浠	-17389
僳	-17390
囯	-17391
氽	-17392
砣	-17393
赳	-17394
趵	-17395
ว	-17396
ソ	-17397
撃	-17398
谗	-17399
ง	-17400
ボ	-17401
莜	-17402
蒯	-17403
镘	-17404
颙	-17405
어	-17406
♂	-17407
螟	-17408
褔	-17409
谞	-17410
म	-17411
圜	-17412
ゴ	-17413
ㄥ	-17414
唛	-17415
怆	-17416
捩	-17417
欸	-17418
炆	-17419
疴	-17420
镝	-17421
砭	-17422
篁	-17423
스	-17424
ˈ	-17425
Ι	-17426
楝	-17427
獾	-17428
리	-17429
枥	-17430
鞑	-17431
∽	-17432
繇	-17433
駅	-17434
卝	-17435
怵	-17436
胝	-17437
ו	-17438
氐	-17439
	-17440
ط	-17441
้	-17442
✔	-17443
円	-17444
妫	-17445
旼	-17446
樘	-17447
秣	-17448
铖	-17449
을	-17450
Ł	-17451
Ψ	-17452
仡	-17453
垵	-17454
揄	-17455
數	-17456
대	-17457
徵	-17458
舺	-17459
钚	-17460
雒	-17461
Í	-17462
谂	-17463
葭	-17464
戸	-17465
暌	-17466
玳	-17467
芨	-17468
蒺	-17469
蚧	-17470
鲣	-17471
ί	-17472
ћ	-17473
啵	-17474
獠	-17475
鹞	-17476
ص	-17477
⌒	-17478
恽	-17479
笘	-17480
绗	-17481
唰	-17482
唳	-17483
忖	-17484
汊	-17485
沢	-17486
菀	-17487
衄	-17488
靥	-17489
Ú	-17490
œ	-17491
ふ	-17492
ょ	-17493
皲	-17494
缦	-17495
揶	-17496
瀞	-17497
袪	-17498
邡	-17499
锱	-17500
髁	-17501
ά	-17502
⭐	-17503
ペ	-17504
僖	-17505
楽	-17506
簋	-17507
虬	-17508
钬	-17509
고	-17510
𩠌	-17511
ส	-17512
„	-17513
橼	-17514
缬	-17515
鹮	-17516
ิ	-17517
▽	-17518
琇	-17519
甭	-17520
郗	-17521
ホ	-17522
嘤	-17523
揖	-17524
罂	-17525
揩	-17526
睨	-17527
耷	-17528
埵	-17529
椪	-17530
焘	-17531
糸	-17532
逶	-17533
胴	-17534
ल	-17535
殁	-17536
渌	-17537
潋	-17538
菈	-17539
À	-17540
溆	-17541
呲	-17542
姒	-17543
焜	-17544
萩	-17545
ヤ	-17546
淝	-17547
稗	-17548
鲇	-17549
त	-17550
✣	-17551
ヒ	-17552
咘	-17553
玹	-17554
嶋	-17555
挈	-17556
Η	-17557
✦	-17558
ぶ	-17559
掼	-17560
豢	-17561
馊	-17562
鹬	-17563
인	-17564
¤	-17565
霰	-17566
خ	-17567
哧	-17568
囗	-17569
奭	-17570
ِ	-17571
ं	-17572
ゅ	-17573
咻	-17574
癔	-17575
硏	-17576
旃	-17577
碛	-17578
Ç	-17579
∏	-17580
缢	-17581
¬	-17582
ה	-17583
ぐ	-17584
弁	-17585
顼	-17586
♪	-17587
べ	-17588
垸	-17589
桷	-17590
湉	-17591
瀬	-17592
茖	-17593
ㄚ	-17594
啕	-17595
圄	-17596
浯	-17597
舐	-17598
蕈	-17599
闳	-17600
ˉ	-17601
む	-17602
懑	-17603
稹	-17604
艿	-17605
蒌	-17606
ี	-17607
✅	-17608
疔	-17609
缂	-17610
舂	-17611
蒟	-17612
ɡ	-17613
囹	-17614
û	-17615
侘	-17616
囝	-17617
跹	-17618
😍	-17619
僭	-17620
晷	-17621
阕	-17622
饬	-17623
鼋	-17624
👇	-17625
珪	-17626
锜	-17627
👉	-17628
ʁ	-17629
ㄣ	-17630
囵	-17631
璠	-17632
粄	-17633
菔	-17634
蛄	-17635
谶	-17636
豺	-17637
鸩	-17638
黠	-17639
✨	-17640
佞	-17641
倬	-17642
疳	-17643
篾	-17644
蠹	-17645
錾	-17646
ほ	-17647
ㄐ	-17648
抻	-17649
靼	-17650
य	-17651
衿	-17652
ㄓ	-17653
乂	-17654
矍	-17655
缛	-17656
诂	-17657
	-17658
🏻	-17659
Ż	-17660
া	-17661
ぎ	-17662
於	-17663
枧	-17664
檫	-17665
発	-17666
粲	-17667
腧	-17668
谀	-17669
ň	-17670
➤	-17671
嫲	-17672
惇	-17673
舾	-17674
茌	-17675
谖	-17676
钐	-17677
梶	-17678
湫	-17679
耨	-17680
臬	-17681
酢	-17682
鲩	-17683
구	-17684
ψ	-17685
囫	-17686
箬	-17687
蒻	-17688
関	-17689
鹘	-17690
Î	-17691
棹	-17692
È	-17693
攞	-17694
聃	-17695
胼	-17696
腠	-17697
衪	-17698
轸	-17699
Й	-17700
ざ	-17701
啱	-17702
囍	-17703
堺	-17704
孛	-17705
箅	-17706
菘	-17707
褴	-17708
蹇	-17709
阊	-17710
𬀩	-17711
̈	-17712
壆	-17713
溟	-17714
琹	-17715
诨	-17716
蹑	-17717
蹚	-17718
자	-17719
ㄤ	-17720
儆	-17721
吖	-17722
庑	-17723
椋	-17724
樨	-17725
ด	-17726
ㄉ	-17727
乩	-17728
刎	-17729
垌	-17730
砒	-17731
翦	-17732
颏	-17733
啻	-17734
狒	-17735
襞	-17736
铷	-17737
鳔	-17738
수	-17739
屐	-17740
悱	-17741
揆	-17742
榀	-17743
绉	-17744
逄	-17745
라	-17746
̃	-17747
〒	-17748
叵	-17749
牯	-17750
琚	-17751
辻	-17752
郏	-17753
瑀	-17754
瑁	-17755
趺	-17756
魉	-17757
☞	-17758
劼	-17759
忪	-17760
旮	-17761
도	-17762
ک	-17763
ह	-17764
ต	-17765
滹	-17766
鬣	-17767
은	-17768
😂	-17769
▌	-17770
ギ	-17771
ヴ	-17772
旳	-17773
氚	-17774
濞	-17775
钍	-17776
闩	-17777
骧	-17778
व	-17779
寛	-17780
瑗	-17781
禛	-17782
糁	-17783
谄	-17784
魍	-17785
鲗	-17786
ُ	-17787
げ	-17788
ゲ	-17789
抟	-17790
杲	-17791
洹	-17792
畹	-17793
豊	-17794
〃	-17795
倌	-17796
烜	-17797
犄	-17798
鼹	-17799
	-17800
Ο	-17801
刂	-17802
旯	-17803
曈	-17804
鹗	-17805
국	-17806
ר	-17807
嘭	-17808
帑	-17809
豕	-17810
鳊	-17811
勰	-17812
樯	-17813
蛉	-17814
衲	-17815
铩	-17816
ɑ	-17817
ㄖ	-17818
俣	-17819
愠	-17820
眦	-17821
ệ	-17822
俎	-17823
燚	-17824
Κ	-17825
濬	-17826
稃	-17827
김	-17828
¡	-17829
ɛ	-17830
伢	-17831
毘	-17832
玦	-17833
ى	-17834
塩	-17835
硷	-17836
胪	-17837
̊	-17838
บ	-17839
嘞	-17840
娉	-17841
枰	-17842
滉	-17843
蔵	-17844
薫	-17845
螭	-17846
동	-17847
Â	-17848
ユ	-17849
僮	-17850
箧	-17851
绾	-17852
원	-17853
	-17854
∣	-17855
刽	-17856
岿	-17857
沔	-17858
洺	-17859
湎	-17860
砵	-17861
胗	-17862
阇	-17863
韫	-17864
พ	-17865
聒	-17866
谡	-17867
蹼	-17868
Π	-17869
ㄕ	-17870
虻	-17871
镨	-17872
鸬	-17873
화	-17874
	-17875
Ε	-17876
ْ	-17877
प	-17878
ห	-17879
仫	-17880
瘿	-17881
诹	-17882
➢	-17883
仳	-17884
罍	-17885
薮	-17886
ư	-17887
்	-17888
ไ	-17889
ㄩ	-17890
忤	-17891
槁	-17892
苧	-17893
菽	-17894
辇	-17895
珣	-17896
紤	-17897
蹙	-17898
성	-17899
🔥	-17900
ό	-17901
ђ	-17902
姫	-17903
ّ	-17904
ज	-17905
द	-17906
ォ	-17907
垟	-17908
実	-17909
悻	-17910
毎	-17911
玏	-17912
葶	-17913
镣	-17914
鲵	-17915
보	-17916
¿	-17917
勖	-17918
泅	-17919
璘	-17920
茑	-17921
锨	-17922
鲂	-17923
鲮	-17924
ל	-17925
埙	-17926
筊	-17927
蓊	-17928
踽	-17929
╳	-17930
♡	-17931
ㄊ	-17932
凼	-17933
橥	-17934
蝰	-17935
逯	-17936
洌	-17937
畬	-17938
硎	-17939
胨	-17940
铳	-17941
饧	-17942
筿	-17943
膂	-17944
蘅	-17945
衹	-17946
ב	-17947
哏	-17948
噔	-17949
昝	-17950
髹	-17951
├	-17952
仵	-17953
掮	-17954
様	-17955
睥	-17956
秕	-17957
罅	-17958
蚴	-17959
린	-17960
유	-17961
ㄠ	-17962
喰	-17963
囔	-17964
嵬	-17965
撵	-17966
滗	-17967
碓	-17968
笕	-17969
箸	-17970
聩	-17971
蚶	-17972
龊	-17973
龌	-17974
영	-17975
𫓹	-17976
ㄌ	-17977
叒	-17978
歳	-17979
주	-17980
ㄍ	-17981
墘	-17982
売	-17983
廪	-17984
忾	-17985
怏	-17986
戕	-17987
螈	-17988
😉	-17989
妪	-17990
嵯	-17991
榧	-17992
牖	-17993
犟	-17994
瞑	-17995
艏	-17996
萁	-17997
제	-17998
ɔ	-17999
掴	-18000
識	-18001
噤	-18002
囟	-18003
対	-18004
椐	-18005
跏	-18006
锷	-18007
骺	-18008
해	-18009
ो	-18010
র	-18011
━	-18012
ㄏ	-18013
烔	-18014
療	-18015
莨	-18016
诒	-18017
锃	-18018
锔	-18019
일	-18020
	-18021
ㄎ	-18022
栃	-18023
淸	-18024
荇	-18025
裾	-18026
闼	-18027
鹚	-18028
우	-18029
ค	-18030
幷	-18031
愍	-18032
漼	-18033
苻	-18034
車	-18035
鲽	-18036
龃	-18037
姵	-18038
嫚	-18039
暻	-18040
煳	-18041
睒	-18042
荖	-18043
薙	-18044
邙	-18045
铪	-18046
ट	-18047
剡	-18048
岢	-18049
庹	-18050
撅	-18051
א	-18052
،	-18053
ㄈ	-18054
哐	-18055
弢	-18056
恵	-18057
楦	-18058
茆	-18059
見	-18060
凫	-18061
哂	-18062
愎	-18063
胬	-18064
蒹	-18065
蛞	-18066
谳	-18067
隰	-18068
鸨	-18069
를	-18070
요	-18071
Ş	-18072
ת	-18073
杼	-18074
滏	-18075
熘	-18076
缫	-18077
鯓	-18078
상	-18079
진	-18080
偲	-18081
嘚	-18082
恚	-18083
蝈	-18084
鏊	-18085
Μ	-18086
參	-18087
哙	-18088
広	-18089
愆	-18090
泺	-18091
隗	-18092
類	-18093
鲀	-18094
전	-18095
ạ	-18096
喟	-18097
垓	-18098
沩	-18099
甪	-18100
穂	-18101
芴	-18102
苾	-18103
镱	-18104
غ	-18105
∈	-18106
∴	-18107
✓	-18108
⠀	-18109
ㄔ	-18110
咝	-18111
嫘	-18112
癀	-18113
蛴	-18114
讀	-18115
镫	-18116
𫉄	-18117
Ř	-18118
Τ	-18119
噙	-18120
龉	-18121
ή	-18122
ས	-18123
☺	-18124
唿	-18125
餍	-18126
鲠	-18127
鶕	-18128
세	-18129
์	-18130
▸	-18131
ㄝ	-18132
庠	-18133
暝	-18134
暸	-18135
鬲	-18136
ế	-18137
椤	-18138
瘕	-18139
蕤	-18140
铊	-18141
Ν	-18142
瞟	-18143
逦	-18144
إ	-18145
ป	-18146
❶	-18147
塱	-18148
挲	-18149
稲	-18150
笹	-18151
蓪	-18152
阗	-18153
박	-18154
ग	-18155
喾	-18156
聍	-18157
脷	-18158
蒨	-18159
镪	-18160
鳏	-18161
鳐	-18162
트	-18163
	-18164
‖	-18165
⃣	-18166
嘣	-18167
塍	-18168
斫	-18169
蒗	-18170
論	-18171
💰	-18172
ช	-18173
秾	-18174
缟	-18175
耵	-18176
蓐	-18177
蘼	-18178
蠈	-18179
豸	-18180
鹇	-18181
ש	-18182
婊	-18183
恹	-18184
洸	-18185
穰	-18186
郃	-18187
⋅	-18188
ㄡ	-18189
圪	-18190
捭	-18191
晸	-18192
毖	-18193
绺	-18194
莼	-18195
飏	-18196
髪	-18197
마	-18198
𬱖	-18199
ะ	-18200
垡	-18201
酎	-18202
镤	-18203
領	-18204
骢	-18205
미	-18206
있	-18207
장	-18208
ㄋ	-18209
叕	-18210
娭	-18211
廸	-18212
玢	-18213
腍	-18214
钲	-18215
그	-18216
중	-18217
Є	-18218
ි	-18219
ი	-18220
⇒	-18221
嗬	-18222
洧	-18223
涔	-18224
瓠	-18225
畚	-18226
笄	-18227
纥	-18228
菰	-18229
逖	-18230
鼐	-18231
신	-18232
แ	-18233
ộ	-18234
ㄗ	-18235
呸	-18236
岜	-18237
沚	-18238
糌	-18239
缁	-18240
鄯	-18241
骝	-18242
문	-18243
Υ	-18244
מ	-18245
‹	-18246
ㄛ	-18247
両	-18248
俶	-18249
偨	-18250
椥	-18251
瑷	-18252
缧	-18253
蝓	-18254
소	-18255
	-18256
ʻ	-18257
ː	-18258
═	-18259
佻	-18260
俦	-18261
呓	-18262
坵	-18263
墑	-18264
嫒	-18265
戗	-18266
笳	-18267
艉	-18268
¶	-18269
ɪ	-18270
Γ	-18271
Ρ	-18272
ุ	-18273
棰	-18274
毑	-18275
沬	-18276
蜉	-18277
說	-18278
诓	-18279
贽	-18280
凃	-18281
梃	-18282
椟	-18283
爨	-18284
瓩	-18285
瞓	-18286
砗	-18287
窣	-18288
籀	-18289
여	-18290
용	-18291
ु	-18292
ㄑ	-18293
冧	-18294
徭	-18295
苳	-18296
茔	-18297
衩	-18298
訾	-18299
読	-18300
髀	-18301
鲆	-18302
ث	-18303
گ	-18304
ब	-18305
嵛	-18306
澔	-18307
炤	-18308
苌	-18309
镔	-18310
비	-18311
Ō	-18312
∨	-18313
◢	-18314
俅	-18315
団	-18316
帔	-18317
杪	-18318
箜	-18319
荜	-18320
诳	-18321
轱	-18322
辺	-18323
逑	-18324
郤	-18325
镏	-18326
강	-18327
ක	-18328
ข	-18329
ả	-18330
⎯	-18331
▎	-18332
❷	-18333
ㄞ	-18334
寤	-18335
嶝	-18336
忉	-18337
抺	-18338
碶	-18339
笤	-18340
箝	-18341
讦	-18342
郇	-18343
ئ	-18344
བ	-18345
侩	-18346
啁	-18347
媺	-18348
崤	-18349
恫	-18350
浈	-18351
痳	-18352
砦	-18353
薜	-18354
薨	-18355
貘	-18356
逋	-18357
郄	-18358
铒	-18359
울	-18360
	-18361
ོ	-18362
▬	-18363
傊	-18364
専	-18365
枨	-18366
脒	-18367
蓣	-18368
면	-18369
안	-18370
으	-18371
현	-18372
ė	-18373
̍	-18374
伝	-18375
咣	-18376
揿	-18377
欉	-18378
欹	-18379
溘	-18380
滝	-18381
筜	-18382
跶	-18383
込	-18384
镞	-18385
드	-18386
	-18387
ť	-18388
έ	-18389
ู	-18390
づ	-18391
変	-18392
磙	-18393
笞	-18394
筼	-18395
箦	-18396
罟	-18397
翕	-18398
訇	-18399
軚	-18400
鋆	-18401
驽	-18402
민	-18403
📣	-18404
്	-18405
จ	-18406
➡	-18407
兩	-18408
廯	-18409
曷	-18410
공	-18411
ད	-18412
埈	-18413
柰	-18414
柾	-18415
桜	-18416
漢	-18417
琤	-18418
筮	-18419
篪	-18420
絜	-18421
衾	-18422
Χ	-18423
ض	-18424
โ	-18425
≮	-18426
▷	-18427
ゼ	-18428
倨	-18429
満	-18430
狀	-18431
玠	-18432
蛘	-18433
경	-18434
부	-18435
Ј	-18436
∥	-18437
ぼ	-18438
檄	-18439
瘰	-18440
窸	-18441
竜	-18442
篌	-18443
鹍	-18444
ぬ	-18445
ヨ	-18446
剜	-18447
圏	-18448
妣	-18449
巻	-18450
沆	-18451
袢	-18452
锇	-18453
镲	-18454
鸱	-18455
오	-18456
😊	-18457
🙏	-18458
𫚉	-18459
棻	-18460
炘	-18461
硌	-18462
総	-18463
螅	-18464
覧	-18465
鸶	-18466
랑	-18467
터	-18468
𫚭	-18469
	-18470
‡	-18471
卣	-18472
娌	-18473
摰	-18474
浍	-18475
箨	-18476
缶	-18477
鮨	-18478
내	-18479
재	-18480
학	-18481
희	-18482
	-18483
︎	-18484
ذ	-18485
‚	-18486
佥	-18487
彊	-18488
毳	-18489
窳	-18490
絵	-18491
雠	-18492
鲧	-18493
💬	-18494
च	-18495
⚡	-18496
ぜ	-18497
彘	-18498
歷	-18499
焼	-18500
萏	-18501
蚋	-18502
衽	-18503
诮	-18504
郷	-18505
게	-18506
😀	-18507
ע	-18508
ड	-18509
↘	-18510
ぱ	-18511
䶮	-18512
傮	-18513
媞	-18514
帙	-18515
欤	-18516
汜	-18517
洇	-18518
続	-18519
艸	-18520
茕	-18521
蕅	-18522
螬	-18523
貉	-18524
辏	-18525
鳯	-18526
산	-18527
연	-18528
	-18529
ơ	-18530
ব	-18531
呔	-18532
哞	-18533
堉	-18534
峠	-18535
徂	-18536
恂	-18537
旄	-18538
槙	-18539
狷	-18540
玗	-18541
疬	-18542
経	-18543
荑	-18544
荦	-18545
蛸	-18546
蝾	-18547
迺	-18548
钪	-18549
馓	-18550
驒	-18551
髽	-18552
역	-18553
😄	-18554
ে	-18555
න	-18556
凖	-18557
妯	-18558
寔	-18559
栲	-18560
焢	-18561
磲	-18562
翚	-18563
舢	-18564
蚨	-18565
踟	-18566
鄣	-18567
🎉	-18568
্	-18569
්	-18570
⚠	-18571
゚	-18572
卮	-18573
尓	-18574
揸	-18575
梠	-18576
猇	-18577
萣	-18578
蕗	-18579
蛱	-18580
裥	-18581
連	-18582
邾	-18583
阋	-18584
남	-18585
습	-18586
‭	-18587
楮	-18588
琲	-18589
腘	-18590
芐	-18591
芰	-18592
蕖	-18593
邴	-18594
酆	-18595
들	-18596
루	-18597
	-18598
🌟	-18599
ָ	-18600
ぃ	-18601
喏	-18602
帏	-18603
幵	-18604
揠	-18605
淏	-18606
琯	-18607
禳	-18608
観	-18609
铙	-18610
離	-18611
𫊻	-18612
└	-18613
呒	-18614
啭	-18615
庋	-18616
恁	-18617
曌	-18618
漈	-18619
竑	-18620
竦	-18621
翃	-18622
艹	-18623
迨	-18624
鸫	-18625
교	-18626
무	-18627
ա	-18628
ა	-18629
伕	-18630
値	-18631
姮	-18632
晩	-18633
澶	-18634
炁	-18635
燿	-18636
畛	-18637
碜	-18638
笊	-18639
簕	-18640
缑	-18641
翥	-18642
蓍	-18643
蚺	-18644
辎	-18645
馀	-18646
鳀	-18647
Λ	-18648
ּ	-18649
נ	-18650
ག	-18651
‪	-18652
☽	-18653
➔	-18654
ㄜ	-18655
厶	-18656
収	-18657
嫱	-18658
栌	-18659
浤	-18660
獴	-18661
玆	-18662
砬	-18663
蝣	-18664
觚	-18665
蹰	-18666
酦	-18667
鬻	-18668
만	-18669
별	-18670
	-18671
ම	-18672
╯	-18673
ㄆ	-18674
倮	-18675
吿	-18676
塁	-18677
桫	-18678
沄	-18679
涑	-18680
狎	-18681
臵	-18682
蓸	-18683
锪	-18684
镠	-18685
	-18686
💪	-18687
ར	-18688
冴	-18689
凪	-18690
垴	-18691
媾	-18692
暎	-18693
沇	-18694
淠	-18695
瀍	-18696
畠	-18697
疋	-18698
臨	-18699
苈	-18700
茛	-18701
轳	-18702
逹	-18703
锝	-18704
雫	-18705
Ñ	-18706
ִ	-18707
仮	-18708
佮	-18709
卍	-18710
栊	-18711
橐	-18712
礽	-18713
筌	-18714
腙	-18715
辔	-18716
邽	-18717
阏	-18718
鳎	-18719
예	-18720
조	-18721
채	-18722
ĩ	-18723
ד	-18724
ི	-18725
↩	-18726
≯	-18727
」	-18728
孓	-18729
崿	-18730
臌	-18731
虺	-18732
襦	-18733
诌	-18734
赀	-18735
钫	-18736
鲡	-18737
鳛	-18738
麿	-18739
데	-18740
🌸	-18741
ʿ	-18742
亜	-18743
剞	-18744
喼	-18745
槊	-18746
渋	-18747
溽	-18748
疠	-18749
礑	-18750
穑	-18751
笪	-18752
诜	-18753
跗	-18754
鳢	-18755
龇	-18756
	-18757
📍	-18758
ְ	-18759
ח	-18760
∪	-18761
ヂ	-18762
儇	-18763
圹	-18764
幪	-18765
彀	-18766
昰	-18767
眭	-18768
罣	-18769
谝	-18770
锕	-18771
験	-18772
骓	-18773
黾	-18774
齁	-18775
카	-18776
호	-18777
	-18778
	-18779
ύ	-18780
श	-18781
⌘	-18782
✰	-18783
ㄙ	-18784
刋	-18785
卺	-18786
宬	-18787
屺	-18788
徼	-18789
抔	-18790
槠	-18791
湔	-18792
湜	-18793
潆	-18794
笫	-18795
箓	-18796
葑	-18797
蝽	-18798
蠃	-18799
蠖	-18800
镙	-18801
颕	-18802
鲥	-18803
	-18804
þ	-18805
अ	-18806
भ	-18807
ང	-18808
ᩚ	-18809
ố	-18810
⁤	-18811
⬇	-18812
単	-18813
婳	-18814
汅	-18815
洈	-18816
祓	-18817
祼	-18818
绡	-18819
缣	-18820
耧	-18821
袊	-18822
錄	-18823
	-18824
ء	-18825
آ	-18826
ය	-18827
傧	-18828
厍	-18829
啷	-18830
嶷	-18831
怿	-18832
搋	-18833
榊	-18834
樋	-18835
浬	-18836
疍	-18837
艽	-18838
蔴	-18839
覀	-18840
踭	-18841
鲼	-18842
위	-18843
포	-18844
	-18845
	-18846
﷽	-18847
	-18848
ƒ	-18849
ɦ	-18850
ʃ	-18851
כ	-18852
ി	-18853
ื	-18854
្	-18855
❗	-18856
「	-18857
劢	-18858
匏	-18859
墀	-18860
妁	-18861
摼	-18862
殄	-18863
猁	-18864
笥	-18865
菹	-18866
蕹	-18867
訳	-18868
谿	-18869
钅	-18870
饸	-18871
鲐	-18872
회	-18873
𬭎	-18874
ļ	-18875
ি	-18876
ද	-18877
ใ	-18878
┄	-18879
㖞	-18880
埝	-18881
堙	-18882
孬	-18883
慱	-18884
柊	-18885
炻	-18886
猞	-18887
粝	-18888
聼	-18889
茚	-18890
莿	-18891
葖	-18892
蓇	-18893
蕻	-18894
薤	-18895
蹁	-18896
郞	-18897
阄	-18898
馃	-18899
운	-18900
윤	-18901
ַ	-18902
ন	-18903
ி	-18904
∗	-18905
❸	-18906
噘	-18907
墁	-18908
岈	-18909
戢	-18910
掾	-18911
搟	-18912
禤	-18913
臓	-18914
锛	-18915
鸸	-18916
鹎	-18917
특	-18918
	-18919
़	-18920
ू	-18921
ව	-18922
☛	-18923
ヘ	-18924
佾	-18925
偛	-18926
営	-18927
噫	-18928
徴	-18929
戆	-18930
暾	-18931
沕	-18932
淯	-18933
瀣	-18934
秫	-18935
缯	-18936
詈	-18937
転	-18938
轵	-18939
魃	-18940
鲃	-18941
鼩	-18942
관	-18943
길	-18944
레	-18945
선	-18946
업	-18947
초	-18948
	-18949
پ	-18950
ུ	-18951
‒	-18952
ぞ	-18953
哝	-18954
堠	-18955
岣	-18956
漷	-18957
璩	-18958
穏	-18959
翮	-18960
菪	-18961
跸	-18962
鐡	-18963
靑	-18964
馑	-18965
鲻	-18966
鸰	-18967
입	-18968
최	-18969
ŋ	-18970
ক	-18971
ল	-18972
☀	-18973
➕	-18974
僰	-18975
圮	-18976
坼	-18977
尪	-18978
戡	-18979
栴	-18980
璁	-18981
聯	-18982
舨	-18983
螵	-18984
褡	-18985
诖	-18986
雮	-18987
	-18988
ώ	-18989
ґ	-18990
ק	-18991
ত	-18992
க	-18993
ා	-18994
ე	-18995
ầ	-18996
ậ	-18997
✧	-18998
冚	-18999
奁	-19000
婞	-19001
嬲	-19002
嵖	-19003
摀	-19004
橛	-19005
泖	-19006
洎	-19007
涙	-19008
潲	-19009
睚	-19010
瞽	-19011
蠓	-19012
逡	-19013
锘	-19014
髡	-19015
髫	-19016
鹋	-19017
과	-19018
합	-19019
	-19020
𪨶	-19021
Ã	-19022
ष	-19023
╰	-19024
ぴ	-19025
㗎	-19026
倂	-19027
嘏	-19028
崐	-19029
怛	-19030
樂	-19031
樗	-19032
浼	-19033
狍	-19034
玘	-19035
禊	-19036
練	-19037
蘗	-19038
蟮	-19039
闘	-19040
韪	-19041
饹	-19042
저	-19043
	-19044
	-19045
	-19046
👏	-19047
ǘ	-19048
Ы	-19049
∧	-19050
⊥	-19051
♠	-19052
㭴	-19053
勲	-19054
墣	-19055
妗	-19056
媪	-19057
嫄	-19058
弇	-19059
応	-19060
憓	-19061
浄	-19062
猊	-19063
珽	-19064
簟	-19065
钆	-19066
鹛	-19067
간	-19068
야	-19069
	-19070
🤣	-19071
ʒ	-19072
ם	-19073
ப	-19074
ო	-19075
ọ	-19076
ờ	-19077
∫	-19078
┘	-19079
☕	-19080
刿	-19081
嗉	-19082
圬	-19083
浞	-19084
牂	-19085
瑭	-19086
瓘	-19087
畋	-19088
癍	-19089
筇	-19090
缷	-19091
锠	-19092
雩	-19093
鞥	-19094
鸷	-19095
鼗	-19096
바	-19097
적	-19098
	-19099
	-19100
🎄	-19101
𫚔	-19102
ǚ	-19103
ն	-19104
आ	-19105
ස	-19106
ḥ	-19107
ヶ	-19108
仉	-19109
吔	-19110
埴	-19111
妺	-19112
峘	-19113
帯	-19114
悪	-19115
惢	-19116
撚	-19117
楬	-19118
焐	-19119
燐	-19120
筘	-19121
赜	-19122
隹	-19123
骀	-19124
鸲	-19125
타	-19126
Β	-19127
๑	-19128
ს	-19129
ồ	-19130
⺠	-19131
仼	-19132
傕	-19133
坌	-19134
悫	-19135
爿	-19136
狨	-19137
狲	-19138
玎	-19139
粩	-19140
纡	-19141
缗	-19142
萆	-19143
蟥	-19144
谇	-19145
豳	-19146
贠	-19147
驺	-19148
魈	-19149
반	-19150
	-19151
	-19152
💡	-19153
😆	-19154
𪸩	-19155
	-19156
Щ	-19157
ර	-19158
ษ	-19159
រ	-19160
ា	-19161
ị	-19162
◉	-19163
亊	-19164
吽	-19165
嗄	-19166
図	-19167
垱	-19168
撙	-19169
栝	-19170
狛	-19171
玚	-19172
瘊	-19173
肫	-19174
蛲	-19175
踯	-19176
蹓	-19177
躅	-19178
锽	-19179
霙	-19180
밍	-19181
📖	-19182
Ì	-19183
ÿ	-19184
Ā	-19185
හ	-19186
ภ	-19187
།	-19188
ᅲ	-19189
≫	-19190
⊕	-19191
▂	-19192
◤	-19193
➊	-19194
䌷	-19195
佺	-19196
倶	-19197
哕	-19198
埏	-19199
岽	-19200
廍	-19201
晧	-19202
楢	-19203
浝	-19204
湲	-19205
牾	-19206
箪	-19207
腚	-19208
莸	-19209
蘧	-19210
褙	-19211
趄	-19212
酽	-19213
铽	-19214
雲	-19215
鸻	-19216
鼍	-19217
너	-19218
더	-19219
메	-19220
명	-19221
🏼	-19222
ď	-19223
ţ	-19224
̶	-19225
ු	-19226
็	-19227
མ	-19228
ლ	-19229
⁠	-19230
≋	-19231
┃	-19232
⟶	-19233
ヽ	-19234
弾	-19235
復	-19236
撘	-19237
氵	-19238
澴	-19239
粜	-19240
貎	-19241
钶	-19242
鵺	-19243
鼯	-19244
샤	-19245
할	-19246
효	-19247
	-19248
𫊸	-19249
Œ	-19250
ǖ	-19251
ए	-19252
ण	-19253
ै	-19254
⚽	-19255
匦	-19256
塆	-19257
媵	-19258
寗	-19259
寘	-19260
煐	-19261
獬	-19262
磔	-19263
舻	-19264
薬	-19265
辧	-19266
鹣	-19267
黐	-19268
齑	-19269
양	-19270
🎂	-19271
🔍	-19272
😭	-19273
𬙂	-19274
פ	-19275
ர	-19276
ు	-19277
ắ	-19278
┅	-19279
㤭	-19280
䜣	-19281
垆	-19282
夼	-19283
廔	-19284
扥	-19285
撺	-19286
敉	-19287
栟	-19288
殍	-19289
毐	-19290
湓	-19291
溲	-19292
澪	-19293
焄	-19294
粋	-19295
糢	-19296
糨	-19297
縻	-19298
罨	-19299
讵	-19300
賸	-19301
跫	-19302
醸	-19303
靈	-19304
骘	-19305
鹪	-19306
개	-19307
식	-19308
준	-19309
	-19310
🙌	-19311
𪟝	-19312
Ê	-19313
Õ	-19314
ǜ	-19315
ṣ	-19316
⁣	-19317
❀	-19318
❌	-19319
ゾ	-19320
厣	-19321
嗮	-19322
妘	-19323
娸	-19324
巉	-19325
怄	-19326
斎	-19327
旒	-19328
桤	-19329
棪	-19330
檎	-19331
殳	-19332
煖	-19333
熳	-19334
砹	-19335
筦	-19336
绲	-19337
脢	-19338
苘	-19339
苤	-19340
薷	-19341
讃	-19342
谠	-19343
轾	-19344
陔	-19345
鹀	-19346
黢	-19347
모	-19348
방	-19349
Ô	-19350
Θ	-19351
ր	-19352
ත	-19353
ැ	-19354
ศ	-19355
འ	-19356
რ	-19357
ᠠ	-19358
≪	-19359
◈	-19360
ヌ	-19361
亶	-19362
唵	-19363
垕	-19364
屻	-19365
廋	-19366
抜	-19367
棨	-19368
渼	-19369
潾	-19370
燹	-19371
箖	-19372
糭	-19373
罴	-19374
菑	-19375
蒎	-19376
蠵	-19377
襌	-19378
赍	-19379
陬	-19380
鬯	-19381
鹆	-19382
黩	-19383
축	-19384
	-19385
Ï	-19386
ํ	-19387
ស	-19388
ṭ	-19389
✕	-19390
咾	-19391
埒	-19392
娈	-19393
帰	-19394
斲	-19395
杌	-19396
榎	-19397
澂	-19398
筅	-19399
縄	-19400
苭	-19401
诔	-19402
辂	-19403
鞯	-19404
飮	-19405
骎	-19406
髭	-19407
거	-19408
계	-19409
되	-19410
분	-19411
치	-19412
	-19413
📌	-19414
Þ	-19415
ŏ	-19416
̵	-19417
ׁ	-19418
ན	-19419
ལ	-19420
ễ	-19421
◦	-19422
✌	-19423
✭	-19424
⻄	-19425
㖊	-19426
亀	-19427
倢	-19428
嵙	-19429
愔	-19430
扺	-19431
曽	-19432
柁	-19433
樶	-19434
溦	-19435
滠	-19436
瀼	-19437
熜	-19438
玨	-19439
矬	-19440
禑	-19441
粢	-19442
纻	-19443
艄	-19444
袠	-19445
阒	-19446
隠	-19447
韡	-19448
饔	-19449
브	-19450
새	-19451
었	-19452
종	-19453
천	-19454
혜	-19455
	-19456
ʊ	-19457
ס	-19458
த	-19459
ถ	-19460
ེ	-19461
ấ	-19462
▏	-19463
✎	-19464
亍	-19465
剣	-19466
嗌	-19467
嗥	-19468
嗫	-19469
圧	-19470
屣	-19471
廨	-19472
彣	-19473
椖	-19474
櫂	-19475
溇	-19476
滿	-19477
烚	-19478
無	-19479
牝	-19480
瑢	-19481
耜	-19482
蔀	-19483
譲	-19484
贶	-19485
酃	-19486
飧	-19487
騨	-19488
鱻	-19489
鲋	-19490
鲹	-19491
鳉	-19492
龢	-19493
디	-19494
림	-19495
북	-19496
워	-19497
크	-19498
프	-19499
	-19500
	-19501
	-19502
	-19503
🔸	-19504
Æ	-19505
ן	-19506
ظ	-19507
ம	-19508
ณ	-19509
↔	-19510
∂	-19511
∆	-19512
∵	-19513
⚫	-19514
俤	-19515
児	-19516
処	-19517
勵	-19518
嘬	-19519
圑	-19520
埌	-19521
壊	-19522
庥	-19523
忝	-19524
戥	-19525
栱	-19526
検	-19527
槻	-19528
済	-19529
玭	-19530
眛	-19531
砇	-19532
缡	-19533
茀	-19534
虿	-19535
蚍	-19536
跣	-19537
镴	-19538
黻	-19539
단	-19540
생	-19541
와	-19542
	-19543
	-19544
😅	-19545
😛	-19546
🥰	-19547
Ș	-19548
ֹ	-19549
ध	-19550
ṯ	-19551
‣	-19552
┤	-19553
☎	-19554
☜	-19555
☟	-19556
✪	-19557
呖	-19558
嚯	-19559
孭	-19560
尢	-19561
忸	-19562
悝	-19563
搦	-19564
朂	-19565
桴	-19566
椇	-19567
樉	-19568
浥	-19569
渟	-19570
犻	-19571
犼	-19572
狻	-19573
盉	-19574
舣	-19575
艶	-19576
诎	-19577
迓	-19578
钖	-19579
阓	-19580
阛	-19581
鞄	-19582
鞮	-19583
鹁	-19584
광	-19585
금	-19586
람	-19587
	-19588
	-19589
💎	-19590
💕	-19591
😱	-19592
𫖮	-19593
Ò	-19594
ų	-19595
ہ	-19596
ख	-19597
फ	-19598
බ	-19599
ผ	-19600
⇔	-19601
∷	-19602
▇	-19603
⻛	-19604
倥	-19605
偬	-19606
偾	-19607
冏	-19608
冨	-19609
哿	-19610
嵚	-19611
搴	-19612
昳	-19613
杄	-19614
玙	-19615
眀	-19616
眇	-19617
芏	-19618
荘	-19619
藠	-19620
蘭	-19621
褰	-19622
觇	-19623
觳	-19624
邶	-19625
钭	-19626
등	-19627
차	-19628
	-19629
Ë	-19630
ז	-19631
ு	-19632
ྲ	-19633
ứ	-19634
ἀ	-19635
┈	-19636
╭	-19637
✿	-19638
➥	-19639
ぁ	-19640
乸	-19641
佧	-19642
偟	-19643
唻	-19644
喈	-19645
圉	-19646
圌	-19647
埽	-19648
堎	-19649
崚	-19650
怍	-19651
怩	-19652
暋	-19653
會	-19654
朓	-19655
楙	-19656
槔	-19657
櫺	-19658
歃	-19659
洑	-19660
犰	-19661
狳	-19662
猢	-19663
矻	-19664
磻	-19665
绂	-19666
缃	-19667
罝	-19668
聴	-19669
裢	-19670
錬	-19671
雑	-19672
魠	-19673
鲉	-19674
黼	-19675
龍	-19676
건	-19677
및	-19678
배	-19679
번	-19680
베	-19681
찌	-19682
🏀	-19683
🏅	-19684
💛	-19685
ո	-19686
ྱ	-19687
Ḥ	-19688
ớ	-19689
倞	-19690
兕	-19691
卲	-19692
嫪	-19693
掲	-19694
摭	-19695
敃	-19696
枘	-19697
梽	-19698
汭	-19699
泂	-19700
漶	-19701
瀹	-19702
牤	-19703
狅	-19704
玧	-19705
琎	-19706
瑸	-19707
異	-19708
盍	-19709
睺	-19710
笮	-19711
缵	-19712
茺	-19713
莶	-19714
蔸	-19715
遹	-19716
鄕	-19717
鍪	-19718
锖	-19719
麈	-19720
년	-19721
래	-19722
손	-19723
임	-19724
체	-19725
환	-19726
	-19727
﨑	-19728
🎁	-19729
🔴	-19730
😎	-19731
🤔	-19732
𪲛	-19733
ʔ	-19734
ֵ	-19735
গ	-19736
প	-19737
স	-19738
ാ	-19739
པ	-19740
∀	-19741
☉	-19742
✖	-19743
❹	-19744
⻓	-19745
ぅ	-19746
ぽ	-19747
ㄘ	-19748
伱	-19749
佷	-19750
価	-19751
壸	-19752
姞	-19753
娡	-19754
彽	-19755
撔	-19756
柽	-19757
栳	-19758
漥	-19759
漭	-19760
煕	-19761
煺	-19762
牁	-19763
犽	-19764
瑫	-19765
皞	-19766
綮	-19767
缌	-19768
蛩	-19769
裵	-19770
襕	-19771
钋	-19772
铕	-19773
铫	-19774
鹩	-19775
黙	-19776
된	-19777
말	-19778
법	-19779
빈	-19780
석	-19781
실	-19782
	-19783
	-19784
	-19785
👀	-19786
😰	-19787
ľ	-19788
ũ	-19789
̲	-19790
͡	-19791
ؤ	-19792
थ	-19793
ക	-19794
ට	-19795
ල	-19796
ἐ	-19797
⃗	-19798
↗	-19799
┐	-19800
┑	-19801
▓	-19802
囘	-19803
堌	-19804
婠	-19805
嬖	-19806
屾	-19807
攴	-19808
柝	-19809
桄	-19810
榱	-19811
権	-19812
殛	-19813
洜	-19814
溷	-19815
珰	-19816
瑝	-19817
璄	-19818
皤	-19819
縂	-19820
袮	-19821
褀	-19822
趔	-19823
遄	-19824
闿	-19825
険	-19826
것	-19827
매	-19828
물	-19829
심	-19830
월	-19831
출	-19832
통	-19833
티	-19834
	-19835
💧	-19836
😁	-19837
ĭ	-19838
ե	-19839
ভ	-19840
য	-19841
ප	-19842
ෙ	-19843
ซ	-19844
မ	-19845
ề	-19846
ợ	-19847
₱	-19848
∇	-19849
╮	-19850
▐	-19851
◾	-19852
☐	-19853
☠	-19854
ゥ	-19855
嗵	-19856
塅	-19857
巌	-19858
愦	-19859
搧	-19860
搿	-19861
斝	-19862
晡	-19863
暠	-19864
梼	-19865
泐	-19866
湴	-19867
滆	-19868
爌	-19869
盦	-19870
眹	-19871
硗	-19872
篼	-19873
觯	-19874
豨	-19875
躄	-19876
遝	-19877
雰	-19878
骉	-19879
髎	-19880
감	-19881
격	-19882
까	-19883
설	-19884
츠	-19885
태	-19886
플	-19887
	-19888
	-19889
ɲ	-19890
ט	-19891
ً	-19892
ల	-19893
్	-19894
ത	-19895
მ	-19896
ᄏ	-19897
◀	-19898
❖	-19899
⟵	-19900
⻔	-19901
䍁	-19902
動	-19903
勞	-19904
嗞	-19905
嶒	-19906
悒	-19907
懐	-19908
枹	-19909
栄	-19910
洢	-19911
涐	-19912
珵	-19913
瓞	-19914
甍	-19915
眽	-19916
睆	-19917
砑	-19918
绐	-19919
缍	-19920
肜	-19921
胂	-19922
芑	-19923
菂	-19924
蕰	-19925
藦	-19926
蛷	-19927
貊	-19928
辚	-19929
鋕	-19930
髑	-19931
黥	-19932
알	-19933
음	-19934
츄	-19935
했	-19936
	-19937
	-19938
	-19939
👨	-19940
𥚃	-19941
𫄨	-19942
ई	-19943
ฟ	-19944
ᠤ	-19945
ᠨ	-19946
ῦ	-19947
‵	-19948
∟	-19949
┦	-19950
┬	-19951
侊	-19952
剤	-19953
姘	-19954
尞	-19955
巜	-19956
幛	-19957
惣	-19958
憙	-19959
戶	-19960
拊	-19961
拏	-19962
掟	-19963
浛	-19964
漖	-19965
澥	-19966
烱	-19967
犲	-19968
狁	-19969
狝	-19970
瑆	-19971
盬	-19972
睂	-19973
禟	-19974
繋	-19975
舗	-19976
芄	-19977
菉	-19978
蓠	-19979
螀	-19980
袓	-19981
覌	-19982
谰	-19983
跩	-19984
迚	-19985
駆	-19986
鬘	-19987
鲴	-19988
백	-19989
열	-19990
청	-19991
텐	-19992
피	-19993
	-19994
	-19995
	-19996
🎊	-19997
𬭚	-19998
ʼ	-19999
ʾ	-20000
ং	-20001
দ	-20002
শ	-20003
ର	-20004
ു	-20005
ේ	-20006
≌	-20007
⛪	-20008
⟨	-20009
偣	-20010
呯	-20011
國	-20012
夤	-20013
媄	-20014
旴	-20015
曛	-20016
枖	-20017
梣	-20018
氅	-20019
炱	-20020
犠	-20021
猄	-20022
玕	-20023
玡	-20024
瑧	-20025
瘆	-20026
瘵	-20027
祊	-20028
窭	-20029
縁	-20030
肸	-20031
脔	-20032
舎	-20033
苺	-20034
荮	-20035
葜	-20036
裉	-20037
語	-20038
譃	-20039
趼	-20040
鄫	-20041
镆	-20042
門	-20043
陸	-20044
鬈	-20045
鯭	-20046
본	-20047
솜	-20048
송	-20049
숙	-20050
슬	-20051
향	-20052
	-20053
	-20054
	-20055
	-20056
🎶	-20057
🏥	-20058
📞	-20059
𬀪	-20060
𬩽	-20061
¦	-20062
Ț	-20063
̀	-20064
ի	-20065
چ	-20066
ু	-20067
ா	-20068
ក	-20069
ể	-20070
ủ	-20071
₦	-20072
⓿	-20073
┕	-20074
┯	-20075
◼	-20076
伃	-20077
俵	-20078
儅	-20079
屙	-20080
捯	-20081
攰	-20082
昜	-20083
曁	-20084
枒	-20085
楯	-20086
欥	-20087
沵	-20088
泇	-20089
浖	-20090
渕	-20091
烀	-20092
筳	-20093
纛	-20094
菝	-20095
葙	-20096
裎	-20097
酲	-20098
醂	-20099
铘	-20100
闇	-20101
霊	-20102
鞴	-20103
館	-20104
饫	-20105
駄	-20106
骱	-20107
鳇	-20108
鹡	-20109
黧	-20110
노	-20111
름	-20112
삐	-20113
션	-20114
속	-20115
순	-20116
없	-20117
좋	-20118
품	-20119
함	-20120
형	-20121
	-20122
	-20123
	-20124
	-20125
🌹	-20126
🌿	-20127
🍃	-20128
💖	-20129
ĕ	-20130
Ľ	-20131
Ь	-20132
ھ	-20133
इ	-20134
ന	-20135
ნ	-20136
ᅠ	-20137
ặ	-20138
║	-20139
▋	-20140
☝	-20141
❛	-20142
⟩	-20143
⻑	-20144
䃅	-20145
俍	-20146
傉	-20147
劬	-20148
匯	-20149
唭	-20150
嚅	-20151
圯	-20152
媸	-20153
屃	-20154
崟	-20155
嵝	-20156
廙	-20157
抃	-20158
溁	-20159
熺	-20160
痩	-20161
睱	-20162
磉	-20163
禚	-20164
禩	-20165
蔹	-20166
蕺	-20167
虓	-20168
裡	-20169
訸	-20170
閦	-20171
阌	-20172
鞒	-20173
骹	-20174
髄	-20175
네	-20176
록	-20177
발	-20178
변	-20179
작	-20180
파	-20181
확	-20182
	-20183
	-20184
	-20185
	-20186
	-20187
	-20188
	-20189
	-20190
	-20191
𐃃	-20192
👈	-20193
😢	-20194
	-20195
ந	-20196
യ	-20197
റ	-20198
ธ	-20199
ღ	-20200
ម	-20201
┌	-20202
▔	-20203
❓	-20204
⻅	-20205
丿	-20206
伥	-20207
伲	-20208
侔	-20209
倻	-20210
偁	-20211
匚	-20212
呶	-20213
喦	-20214
嬢	-20215
宀	-20216
宍	-20217
愀	-20218
擡	-20219
旰	-20220
栒	-20221
榼	-20222
洐	-20223
洳	-20224
澌	-20225
灜	-20226
猓	-20227
琁	-20228
瘗	-20229
脁	-20230
艨	-20231
荩	-20232
荭	-20233
莩	-20234
菍	-20235
虒	-20236
覚	-20237
酡	-20238
阝	-20239
鸹	-20240
鼱	-20241
뉴	-20242
달	-20243
또	-20244
러	-20245
론	-20246
복	-20247
씨	-20248
후	-20249
	-20250
	-20251
	-20252
	-20253
	-20254
💚	-20255
💜	-20256
😘	-20257
𩽾	-20258
𫍽	-20259
ˌ	-20260
˒	-20261
̧	-20262
আ	-20263
ங	-20264
ல	-20265
മ	-20266
ല	-20267
එ	-20268
်	-20269
გ	-20270
ვ	-20271
ᆞ	-20272
ᠢ	-20273
ụ	-20274
▀	-20275
▉	-20276
✈	-20277
➨	-20278
⬆	-20279
⻘	-20280
㶶	-20281
仏	-20282
呙	-20283
喁	-20284
姃	-20285
岵	-20286
峣	-20287
崠	-20288
崦	-20289
幞	-20290
悛	-20291
拡	-20292
挢	-20293
捜	-20294
旆	-20295
橾	-20296
洣	-20297
浧	-20298
烝	-20299
犪	-20300
犴	-20301
狋	-20302
獯	-20303
珖	-20304
睘	-20305
簃	-20306
簖	-20307
粞	-20308
胙	-20309
蓨	-20310
薢	-20311
虡	-20312
蛑	-20313
蜞	-20314
蜩	-20315
蝻	-20316
螽	-20317
蠲	-20318
裇	-20319
觋	-20320
詧	-20321
赑	-20322
軐	-20323
軽	-20324
選	-20325
郪	-20326
顸	-20327
饣	-20328
글	-20329
날	-20330
눈	-20331
두	-20332
따	-20333
불	-20334
토	-20335
패	-20336
	-20337
	-20338
	-20339
	-20340
	-20341
	-20342
	-20343
👽	-20344
🙁	-20345
𪾔	-20346
𫚥	-20347
𬭩	-20348
Ξ	-20349
џ	-20350
ے	-20351
ॉ	-20352
ম	-20353
இ	-20354
ా	-20355
ര	-20356
ბ	-20357
ṁ	-20358
⁡	-20359
▊	-20360
▒	-20361
◄	-20362
♫	-20363
⻝	-20364
ㄦ	-20365
偩	-20366
勍	-20367
墬	-20368
妏	-20369
庀	-20370
廃	-20371
廛	-20372
従	-20373
惡	-20374
慊	-20375
懃	-20376
戽	-20377
撄	-20378
時	-20379
杻	-20380
柙	-20381
梱	-20382
槚	-20383
檠	-20384
洨	-20385
澯	-20386
爀	-20387
猡	-20388
皩	-20389
缒	-20390
罾	-20391
羑	-20392
羮	-20393
舳	-20394
苼	-20395
荛	-20396
荬	-20397
萑	-20398
葸	-20399
蓮	-20400
襻	-20401
謢	-20402
跂	-20403
踅	-20404
鄜	-20405
铗	-20406
锼	-20407
镢	-20408
늘	-20409
득	-20410
립	-20411
승	-20412
창	-20413
히	-20414
	-20415
	-20416
	-20417
	-20418
	-20419
	-20420
	-20421
	-20422
	-20423
	-20424
	-20425
🇺	-20426
🏆	-20427
😃	-20428
🚨	-20429
𩾌	-20430
𫚕	-20431
ɣ	-20432
Ζ	-20433
ג	-20434
ী	-20435
ச	-20436
ಠ	-20437
വ	-20438
ខ	-20439
ᠭ	-20440
⌋	-20441
┪	-20442
▫	-20443
◊	-20444
◯	-20445
⚭	-20446
✘	-20447
❥	-20448
⻁	-20449
⻰	-20450
丌	-20451
偼	-20452
刖	-20453
忮	-20454
怫	-20455
扡	-20456
択	-20457
敻	-20458
昐	-20459
晙	-20460
杩	-20461
橦	-20462
氿	-20463
沨	-20464
烺	-20465
牞	-20466
瑥	-20467
畎	-20468
痄	-20469
矞	-20470
硪	-20471
禮	-20472
穀	-20473
穸	-20474
粨	-20475
纟	-20476
罱	-20477
耑	-20478
苿	-20479
莙	-20480
蕯	-20481
袌	-20482
谮	-20483
資	-20484
鋈	-20485
開	-20486
闶	-20487
風	-20488
骖	-20489
鲌	-20490
각	-20491
르	-20492
쁨	-20493
코	-20494
평	-20495
행	-20496
황	-20497
	-20498
	-20499
	-20500
	-20501
	-20502
	-20503
	-20504
	-20505
🌳	-20506
🏃	-20507
💞	-20508
💥	-20509
📢	-20510
🔊	-20511
🥊	-20512
𫛭	-20513
𬶍	-20514
ġ	-20515
̋	-20516
Ъ	-20517
յ	-20518
ـ	-20519
।	-20520
়	-20521
ା	-20522
ം	-20523
ඔ	-20524
ភ	-20525
ổ	-20526
ừ	-20527
ὑ	-20528
↵	-20529
▾	-20530
♣	-20531
♬	-20532
❝	-20533
⻋	-20534
⻩	-20535
䴙	-20536
乇	-20537
僟	-20538
冮	-20539
呑	-20540
唞	-20541
堞	-20542
夲	-20543
奓	-20544
娋	-20545
嫫	-20546
寕	-20547
岒	-20548
崞	-20549
崾	-20550
廴	-20551
彖	-20552
彡	-20553
忞	-20554
怹	-20555
愐	-20556
扆	-20557
晳	-20558
枓	-20559
槜	-20560
沺	-20561
炓	-20562
爝	-20563
疕	-20564
癯	-20565
禇	-20566
籺	-20567
綠	-20568
缋	-20569
羅	-20570
聡	-20571
脿	-20572
茈	-20573
葎	-20574
藨	-20575
蘘	-20576
蟊	-20577
袆	-20578
裼	-20579
褊	-20580
蹀	-20581
鈊	-20582
鋬	-20583
锍	-20584
長	-20585
雱	-20586
鞨	-20587
馫	-20588
骟	-20589
魩	-20590
麄	-20591
같	-20592
때	-20593
막	-20594
많	-20595
블	-20596
삼	-20597
앙	-20598
앱	-20599
직	-20600
테	-20601
팽	-20602
	-20603
	-20604
	-20605
	-20606
🇮	-20607
🌊	-20608
🌎	-20609
👌	-20610
🤗	-20611
🤩	-20612
𬒈	-20613
ħ	-20614
ŭ	-20615
Ћ	-20616
ֶ	-20617
צ	-20618
۶	-20619
త	-20620
අ	-20621
ཀ	-20622
ཞ	-20623
ု	-20624
ტ	-20625
ុ	-20626
ែ	-20627
ᴗ	-20628
ự	-20629
≒	-20630
┴	-20631
┻	-20632
♢	-20633
♨	-20634
♭	-20635
❍	-20636
乭	-20637
亼	-20638
倓	-20639
冋	-20640
凊	-20641
劓	-20642
卐	-20643
卨	-20644
嘒	-20645
堣	-20646
墕	-20647
娫	-20648
嵒	-20649
帻	-20650
彅	-20651
憷	-20652
斉	-20653
昪	-20654
暦	-20655
槑	-20656
殂	-20657
汔	-20658
汯	-20659
濋	-20660
焠	-20661
焫	-20662
狉	-20663
璆	-20664
甏	-20665
瘛	-20666
皀	-20667
皕	-20668
眬	-20669
礅	-20670
禵	-20671
經	-20672
緖	-20673
绱	-20674
绹	-20675
缊	-20676
羣	-20677
艟	-20678
苖	-20679
荙	-20680
葨	-20681
蔟	-20682
藛	-20683
虮	-20684
袼	-20685
裒	-20686
褵	-20687
觜	-20688
誔	-20689
辀	-20690
锓	-20691
镎	-20692
電	-20693
靺	-20694
鞫	-20695
饩	-20696
騒	-20697
驲	-20698
驵	-20699
鹟	-20700
齢	-20701
규	-20702
급	-20703
딩	-20704
려	-20705
링	-20706
목	-20707
밀	-20708
밤	-20709
않	-20710
았	-20711
엔	-20712
외	-20713
점	-20714
즈	-20715
	-20716
	-20717
	-20718
	-20719
	-20720
	-20721
	-20722
	-20723
	-20724
	-20725
	-20726
🏽	-20727
📺	-20728
😋	-20729
😳	-20730
𣲗	-20731
𤞤	-20732
𨱍	-20733
𬣞	-20734
Ð	-20735
Џ	-20736
٩	-20737
१	-20738
হ	-20739
న	-20740
ప	-20741
ာ	-20742
⇓	-20743
┙	-20744
┝	-20745
┨	-20746
╩	-20747
❄	-20748
㵲	-20749
佴	-20750
剀	-20751
労	-20752
勀	-20753
厐	-20754
嗍	-20755
嘥	-20756
埆	-20757
埜	-20758
塝	-20759
塡	-20760
嫑	-20761
嵜	-20762
廌	-20763
彳	-20764
愬	-20765
懔	-20766
戯	-20767
扞	-20768
搌	-20769
昃	-20770
昍	-20771
晢	-20772
栆	-20773
楤	-20774
榇	-20775
欷	-20776
歔	-20777
渉	-20778
湣	-20779
澉	-20780
炇	-20781
燠	-20782
狴	-20783
猃	-20784
珧	-20785
琄	-20786
甗	-20787
瘥	-20788
瘼	-20789
皝	-20790
眲	-20791
眳	-20792
砘	-20793
砳	-20794
硇	-20795
秏	-20796
箑	-20797
綷	-20798
芟	-20799
荈	-20800
蔎	-20801
蚰	-20802
蜮	-20803
蝍	-20804
蟌	-20805
蟛	-20806
衎	-20807
訉	-20808
貒	-20809
貭	-20810
趯	-20811
邉	-20812
邠	-20813
酛	-20814
酹	-20815
钘	-20816
阍	-20817
隳	-20818
鳋	-20819
龀	-20820
龠	-20821
권	-20822
능	-20823
당	-20824
락	-20825
란	-20826
렴	-20827
먼	-20828
받	-20829
애	-20830
처	-20831
충	-20832
푸	-20833
훈	-20834
	-20835
	-20836
	-20837
	-20838
	-20839
	-20840
	-20841
	-20842
🌈	-20843
😜	-20844
😽	-20845
🚫	-20846
𬟁	-20847
𬶨	-20848
ņ	-20849
Ź	-20850
̌	-20851
Ї	-20852
ў	-20853
Ґ	-20854
ौ	-20855
অ	-20856
ି	-20857
ర	-20858
സ	-20859
ග	-20860
უ	-20861
ᠷ	-20862
ữ	-20863
Ἀ	-20864
⇐	-20865
∝	-20866
┗	-20867
╲	-20868
✉	-20869
✩	-20870
➣	-20871
『	-20872
〡	-20873
㑩	-20874
㮶	-20875
䴘	-20876
偱	-20877
刭	-20878
哓	-20879
單	-20880
嘁	-20881
垞	-20882
垲	-20883
堽	-20884
夬	-20885
妸	-20886
帱	-20887
懽	-20888
戋	-20889
戻	-20890
扃	-20891
揺	-20892
敔	-20893
書	-20894
曺	-20895
朿	-20896
枡	-20897
柃	-20898
橿	-20899
燏	-20900
狓	-20901
甡	-20902
畤	-20903
畳	-20904
眢	-20905
睋	-20906
睎	-20907
瞀	-20908
砉	-20909
碡	-20910
碹	-20911
笾	-20912
箇	-20913
翙	-20914
膶	-20915
苝	-20916
荅	-20917
莛	-20918
袷	-20919
趿	-20920
踇	-20921
銭	-20922
锞	-20923
韺	-20924
顚	-20925
颃	-20926
馡	-20927
鬄	-20928
鲚	-20929
鹱	-20930
님	-20931
봉	-20932
엄	-20933
왕	-20934
질	-20935
철	-20936
친	-20937
항	-20938
홍	-20939
활	-20940
	-20941
	-20942
	-20943
	-20944
	-20945
	-20946
	-20947
	-20948
	-20949
	-20950
	-20951
	-20952
	-20953
	-20954
	-20955
	-20956
𐃥	-20957
🌼	-20958
💃	-20959
💐	-20960
💗	-20961
📱	-20962
📷	-20963
🔗	-20964
🔺	-20965
𩾇	-20966
𫠐	-20967
𬘩	-20968
ķ	-20969
Ÿ	-20970
Ǟ	-20971
ɾ	-20972
Њ	-20973
ں	-20974
ো	-20975
ਰ	-20976
ய	-20977
வ	-20978
ి	-20979
ฉ	-20980
๏	-20981
ཆ	-20982
ṇ	-20983
ỉ	-20984
ỳ	-20985
ὐ	-20986
‿	-20987
☘	-20988
✽	-20989
❞	-20990
⸢	-20991
⸥	-20992
⻆	-20993
ぇ	-20994
ヲ	-20995
㑹	-20996
㮾	-20997
㶽	-20998
䑸	-20999
亻	-21000
伋	-21001
伓	-21002
侂	-21003
係	-21004
俋	-21005
倅	-21006
傎	-21007
兊	-21008
凎	-21009
刳	-21010
匜	-21011
叆	-21012
呴	-21013
屦	-21014
岕	-21015
庁	-21016
挻	-21017
旵	-21018
杬	-21019
棫	-21020
椀	-21021
楗	-21022
業	-21023
檞	-21024
殽	-21025
毌	-21026
潓	-21027
澛	-21028
灬	-21029
炟	-21030
禔	-21031
笱	-21032
笸	-21033
簠	-21034
籓	-21035
紀	-21036
継	-21037
羱	-21038
脳	-21039
臜	-21040
與	-21041
苊	-21042
苠	-21043
藟	-21044
虼	-21045
蜣	-21046
蝲	-21047
蟪	-21048
袴	-21049
設	-21050
豋	-21051
赒	-21052
郕	-21053
郿	-21054
铥	-21055
锎	-21056
锬	-21057
镚	-21058
霪	-21059
鲦	-21060
鼙	-21061
겨	-21062
결	-21063
버	-21064
벨	-21065
살	-21066
온	-21067
완	-21068
잉	-21069
추	-21070
핑	-21071
	-21072
	-21073
	-21074
	-21075
	-21076
	-21077
	-21078
	-21079
	-21080
	-21081
	-21082
	-21083
	-21084
	-21085
	-21086
﹅	-21087
𐃦	-21088
🇦	-21089
👩	-21090
💋	-21091
🙈	-21092
𪿫	-21093
𫓴	-21094
򀀩	-21095
̆	-21096
ս	-21097
ֲ	-21098
उ	-21099
ை	-21100
ద	-21101
ച	-21102
പ	-21103
ള	-21104
ླ	-21105
დ	-21106
ᠣ	-21107
ᠯ	-21108
⁃	-21109
⊆	-21110
┆	-21111
┛	-21112
┥	-21113
▃	-21114
✋	-21115
✮	-21116
⬅	-21117
㧑	-21118
㵐	-21119
䇲	-21120
丅	-21121
丏	-21122
伛	-21123
伹	-21124
俜	-21125
個	-21126
嚗	-21127
垾	-21128
場	-21129
塄	-21130
奡	-21131
奵	-21132
婥	-21133
孥	-21134
學	-21135
寖	-21136
寯	-21137
嵤	-21138
[...]
